{
  "version": "1.0",
  "truncation": {
    "direction": "Right",
    "max_length": 128,
    "strategy": "LongestFirst",
    "stride": 0
  },
  "padding": {
    "strategy": "BatchLongest",
    "direction": "Right",
    "pad_to_multiple_of": null,
    "pad_id": 0,
    "pad_type_id": 0,
    "pad_token": "[PAD]"
  },
  "added_tokens": [
    {
      "id": 0,
      "content": "[PAD]",
      "single_word": false,
      "lstrip": false,
      "rstrip": false,
      "normalized": false,
      "special": true
    },
    {
      "id": 1,
      "content": "[UNK]",
      "single_word": false,
      "lstrip": false,
      "rstrip": false,
      "normalized": false,
      "special": true
    },
    {
      "id": 2,
      "content": "[MASK]",
      "single_word": false,
      "lstrip": false,
      "rstrip": false,
      "normalized": false,
      "special": true
    },
    {
      "id": 3,
      "content": "[CLS]",
      "single_word": false,
      "lstrip": false,
      "rstrip": false,
      "normalized": false,
      "special": true
    },
    {
      "id": 4,
      "content": "[SEP]",
      "single_word": false,
      "lstrip": false,
      "rstrip": false,
      "normalized": false,
      "special": true
    }
  ],
  "normalizer": {
    "type": "BertNormalizer",
    "clean_text": true,
    "handle_chinese_chars": true,
    "strip_accents": null,
    "lowercase": true
  },
  "pre_tokenizer": {
    "type": "BertPreTokenizer"
  },
  "post_processor": {
    "type": "TemplateProcessing",
    "single": [
      {
        "SpecialToken": {
          "id": "[CLS]",
          "type_id": 0
        }
      },
      {
        "Sequence": {
          "id": "A",
          "type_id": 0
        }
      },
      {
        "SpecialToken": {
          "id": "[SEP]",
          "type_id": 0
        }
      }
    ],
    "pair": [
      {
        "SpecialToken": {
          "id": "[CLS]",
          "type_id": 0
        }
      },
      {
        "Sequence": {
          "id": "A",
          "type_id": 0
        }
      },
      {
        "SpecialToken": {
          "id": "[SEP]",
          "type_id": 0
        }
      },
      {
        "Sequence": {
          "id": "B",
          "type_id": 1
        }
      },
      {
        "SpecialToken": {
          "id": "[SEP]",
          "type_id": 1
        }
      }
    ],
    "special_tokens": {
      "[CLS]": {
        "id": "[CLS]",
        "ids": [
          3
        ],
        "tokens": [
          "[CLS]"
        ]
      },
      "[SEP]": {
        "id": "[SEP]",
        "ids": [
          4
        ],
        "tokens": [
          "[SEP]"
        ]
      }
    }
  },
  "decoder": {
    "type": "WordPiece",
    "prefix": "##",
    "cleanup": true
  },
  "model": {
    "type": "WordPiece",
    "unk_token": "[UNK]",
    "continuing_subword_prefix": "##",
    "max_input_chars_per_word": 100,
    "vocab": {
      "[PAD]": 0,
      "[UNK]": 1,
      "[MASK]": 2,
      "[CLS]": 3,
      "[SEP]": 4,
      "!": 5,
      "\"": 6,
      "#": 7,
      "$": 8,
      "%": 9,
      "&": 10,
      "'": 11,
      "(": 12,
      ")": 13,
      "*": 14,
      "+": 15,
      ",": 16,
      "-": 17,
      ".": 18,
      "/": 19,
      "0": 20,
      "1": 21,
      "2": 22,
      "3": 23,
      "4": 24,
      "5": 25,
      "6": 26,
      "7": 27,
      "8": 28,
      "9": 29,
      ":": 30,
      ";": 31,
      "[unusued61]": 32,
      "=": 33,
      "[unusued62]": 34,
      "?": 35,
      "@": 36,
      "[": 37,
      "\\": 38,
      "]": 39,
      "^": 40,
      "_": 41,
      "`": 42,
      "a": 43,
      "b": 44,
      "c": 45,
      "d": 46,
      "e": 47,
      "f": 48,
      "g": 49,
      "h": 50,
      "i": 51,
      "j": 52,
      "k": 53,
      "l": 54,
      "m": 55,
      "n": 56,
      "o": 57,
      "p": 58,
      "q": 59,
      "r": 60,
      "s": 61,
      "t": 62,
      "u": 63,
      "v": 64,
      "w": 65,
      "x": 66,
      "y": 67,
      "z": 68,
      "{": 69,
      "|": 70,
      "}": 71,
      "~": 72,
      "¡": 73,
      "¢": 74,
      "£": 75,
      "¥": 76,
      "[unusued63]": 77,
      "§": 78,
      "¨": 79,
      "[unusued64]": 80,
      "[unusued65]": 81,
      "«": 82,
      "¬": 83,
      "[unusued66]": 84,
      "¯": 85,
      "°": 86,
      "±": 87,
      "²": 88,
      "³": 89,
      "´": 90,
      "[unusued67]": 91,
      "¶": 92,
      "·": 93,
      "¹": 94,
      "º": 95,
      "»": 96,
      "¼": 97,
      "½": 98,
      "[unusued68]": 99,
      "¿": 100,
      "×": 101,
      "ß": 102,
      "æ": 103,
      "ð": 104,
      "÷": 105,
      "ø": 106,
      "þ": 107,
      "[unusued69]": 108,
      "[unusued70]": 109,
      "ı": 110,
      "[unusued71]": 111,
      "[unusued72]": 112,
      "œ": 113,
      "[unusued73]": 114,
      "ɐ": 115,
      "[unusued74]": 116,
      "[unusued75]": 117,
      "[unusued76]": 118,
      "[unusued77]": 119,
      "[unusued78]": 120,
      "ɪ": 121,
      "[unusued79]": 122,
      "[unusued80]": 123,
      "[unusued81]": 124,
      "[unusued82]": 125,
      "[unusued83]": 126,
      "[unusued84]": 127,
      "ʔ": 128,
      "[unusued85]": 129,
      "ʰ": 130,
      "ʲ": 131,
      "[unusued86]": 132,
      "[unusued87]": 133,
      "[unusued88]": 134,
      "[unusued89]": 135,
      "[unusued90]": 136,
      "[unusued91]": 137,
      "[unusued92]": 138,
      "[unusued93]": 139,
      "˙": 140,
      "˚": 141,
      "˜": 142,
      "α": 143,
      "[unusued94]": 144,
      "[unusued95]": 145,
      "[unusued96]": 146,
      "ε": 147,
      "[unusued97]": 148,
      "[unusued98]": 149,
      "[unusued99]": 150,
      "ι": 151,
      "¤": 152,
      "ƙ": 153,
      "ƪ": 154,
      "ƭ": 155,
      "ƴ": 156,
      "ɓ": 157,
      "π": 158,
      "ɗ": 159,
      "ɢ": 160,
      "σ": 161,
      "ɯ": 162,
      "υ": 163,
      "ɴ": 164,
      "ʀ": 165,
      "ʏ": 166,
      "ω": 167,
      "ʕ": 168,
      "ʖ": 169,
      "ʙ": 170,
      "ʜ": 171,
      "д": 172,
      "ʟ": 173,
      "ʳ": 174,
      "ʸ": 175,
      "˂": 176,
      "˃": 177,
      "ˊ": 178,
      "ˋ": 179,
      "н": 180,
      "ˎ": 181,
      "ˏ": 182,
      "˖": 183,
      "˗": 184,
      "т": 185,
      "˘": 186,
      "ˡ": 187,
      "ˢ": 188,
      "˳": 189,
      "ѕ": 190,
      "ғ": 191,
      "٫": 192,
      "ٱ": 193,
      "ᴀ": 194,
      "ᴄ": 195,
      "ᴅ": 196,
      "ᴇ": 197,
      "я": 198,
      "ᴊ": 199,
      "ᴋ": 200,
      "ᴍ": 201,
      "ᴏ": 202,
      "ө": 203,
      "ᴗ": 204,
      "ᴘ": 205,
      "ᴛ": 206,
      "ᴜ": 207,
      "ᴮ": 208,
      "ᴴ": 209,
      "ᴹ": 210,
      "ᴺ": 211,
      "ᵀ": 212,
      "ᵃ": 213,
      "ᵇ": 214,
      "ᵈ": 215,
      "ᵉ": 216,
      "ᵍ": 217,
      "ᵏ": 218,
      "ᵐ": 219,
      "ᵒ": 220,
      "ᵕ": 221,
      "ᵖ": 222,
      "ᵗ": 223,
      "ᵘ": 224,
      "ᶜ": 225,
      "ᶠ": 226,
      "‧": 227,
      "※": 228,
      "‾": 229,
      "‿": 230,
      "⁃": 231,
      "ⁱ": 232,
      "⁴": 233,
      "⁹": 234,
      "⁺": 235,
      "ⁿ": 236,
      "₊": 237,
      "،": 238,
      "₍": 239,
      "ء": 240,
      "ا": 241,
      "ب": 242,
      "ة": 243,
      "ت": 244,
      "ث": 245,
      "ج": 246,
      "ح": 247,
      "خ": 248,
      "د": 249,
      "ذ": 250,
      "ر": 251,
      "ز": 252,
      "س": 253,
      "ش": 254,
      "ص": 255,
      "ض": 256,
      "ط": 257,
      "ظ": 258,
      "ع": 259,
      "غ": 260,
      "ـ": 261,
      "ف": 262,
      "ق": 263,
      "ك": 264,
      "ل": 265,
      "م": 266,
      "ن": 267,
      "ه": 268,
      "و": 269,
      "ى": 270,
      "ي": 271,
      "₎": 272,
      "ₐ": 273,
      "⃝": 274,
      "⃟": 275,
      "ℂ": 276,
      "℅": 277,
      "⅓": 278,
      "ی": 279,
      "⅔": 280,
      "ↀ": 281,
      "←": 282,
      "↬": 283,
      "↳": 284,
      "↷": 285,
      "∀": 286,
      "∇": 287,
      "∘": 288,
      "∙": 289,
      "∩": 290,
      "∪": 291,
      "∴": 292,
      "≦": 293,
      "≧": 294,
      "⊙": 295,
      "⊰": 296,
      "⊱": 297,
      "⊹": 298,
      "⋆": 299,
      "⌣": 300,
      "⎯": 301,
      "ⓐ": 302,
      "ⓘ": 303,
      "ⓟ": 304,
      "─": 305,
      "━": 306,
      "│": 307,
      "┃": 308,
      "┅": 309,
      "┇": 310,
      "┈": 311,
      "┉": 312,
      "┊": 313,
      "┌": 314,
      "┍": 315,
      "┏": 316,
      "┐": 317,
      "┑": 318,
      "┓": 319,
      "└": 320,
      "┗": 321,
      "┘": 322,
      "┛": 323,
      "┳": 324,
      "┻": 325,
      "═": 326,
      "╔": 327,
      "╗": 328,
      "╚": 329,
      "╝": 330,
      "╥": 331,
      "╭": 332,
      "╮": 333,
      "╯": 334,
      "╰": 335,
      "╱": 336,
      "╲": 337,
      "╹": 338,
      "╾": 339,
      "▀": 340,
      "▂": 341,
      "▄": 342,
      "█": 343,
      "▏": 344,
      "░": 345,
      "▓": 346,
      "▔": 347,
      "▕": 348,
      "■": 349,
      "□": 350,
      "▬": 351,
      "►": 352,
      "▽": 353,
      "▿": 354,
      "◇": 355,
      "◉": 356,
      "○": 357,
      "◍": 358,
      "●": 359,
      "◔": 360,
      "◕": 361,
      "◜": 362,
      "◝": 363,
      "◞": 364,
      "◡": 365,
      "◦": 366,
      "★": 367,
      "☆": 368,
      "☛": 369,
      "☜": 370,
      "☞": 371,
      "☻": 372,
      "☽": 373,
      "♡": 374,
      "♤": 375,
      "♪": 376,
      "⚈": 377,
      "⚘": 378,
      "⛧": 379,
      "✄": 380,
      "✎": 381,
      "✑": 382,
      "✓": 383,
      "✗": 384,
      "‐": 385,
      "‑": 386,
      "–": 387,
      "—": 388,
      "―": 389,
      "✘": 390,
      "‘": 391,
      "’": 392,
      "‚": 393,
      "“": 394,
      "”": 395,
      "„": 396,
      "✦": 397,
      "†": 398,
      "✧": 399,
      "•": 400,
      "…": 401,
      "✩": 402,
      "✫": 403,
      "✭": 404,
      "‹": 405,
      "›": 406,
      "✯": 407,
      "⁰": 408,
      "₩": 409,
      "€": 410,
      "✰": 411,
      "₹": 412,
      "✵": 413,
      "✿": 414,
      "❀": 415,
      "↑": 416,
      "→": 417,
      "↓": 418,
      "∆": 419,
      "❁": 420,
      "√": 421,
      "❐": 422,
      "❖": 423,
      "❛": 424,
      "≤": 425,
      "❜": 426,
      "⋅": 427,
      "❝": 428,
      "❞": 429,
      "い": 430,
      "❥": 431,
      "❲": 432,
      "➛": 433,
      "か": 434,
      "➤": 435,
      "⠀": 436,
      "⠄": 437,
      "⸝": 438,
      "、": 439,
      "。": 440,
      "《": 441,
      "》": 442,
      "「": 443,
      "」": 444,
      "『": 445,
      "っ": 446,
      "つ": 447,
      "』": 448,
      "【": 449,
      "な": 450,
      "】": 451,
      "の": 452,
      "は": 453,
      "〒": 454,
      "〓": 455,
      "〔": 456,
      "〕": 457,
      "゛": 458,
      "゜": 459,
      "ヮ": 460,
      "ヽ": 461,
      "ㅅ": 462,
      "ㅋ": 463,
      "ㅎ": 464,
      "ㅜ": 465,
      "ㅠ": 466,
      "ㅡ": 467,
      "ㅤ": 468,
      "㉨": 469,
      "乐": 470,
      "哈": 471,
      "ア": 472,
      "回": 473,
      "イ": 474,
      "娱": 475,
      "彡": 476,
      "ꈍ": 477,
      "꒦": 478,
      "꒰": 479,
      "꒱": 480,
      "ク": 481,
      "꒳": 482,
      "꒷": 483,
      "サ": 484,
      "シ": 485,
      "ス": 486,
      "ꜱ": 487,
      "꧁": 488,
      "꧂": 489,
      "ﷻ": 490,
      "﷽": 491,
      "ツ": 492,
      "︑": 493,
      "ト": 494,
      "︵": 495,
      "︶": 496,
      "ノ": 497,
      "ハ": 498,
      "︿": 499,
      "フ": 500,
      "﹀": 501,
      "﹏": 502,
      "＊": 503,
      "ミ": 504,
      "－": 505,
      "．": 506,
      "／": 507,
      "；": 508,
      "？": 509,
      "＼": 510,
      "＾": 511,
      "ラ": 512,
      "＿": 513,
      "ル": 514,
      "｀": 515,
      "ロ": 516,
      "ａ": 517,
      "ｂ": 518,
      "ン": 519,
      "・": 520,
      "ー": 521,
      "一": 522,
      "ｄ": 523,
      "ｅ": 524,
      "万": 525,
      "ｇ": 526,
      "ｈ": 527,
      "ｉ": 528,
      "ｊ": 529,
      "ｋ": 530,
      "ｌ": 531,
      "ｍ": 532,
      "ｎ": 533,
      "ｏ": 534,
      "ｐ": 535,
      "ｒ": 536,
      "ｓ": 537,
      "ｔ": 538,
      "ｕ": 539,
      "｡": 540,
      "･": 541,
      "ﾉ": 542,
      "ﾐ": 543,
      "ﾟ": 544,
      "￣": 545,
      "𓆉": 546,
      "𓈈": 547,
      "𝐀": 548,
      "𝐁": 549,
      "𝐂": 550,
      "𝐃": 551,
      "𝐄": 552,
      "𝐅": 553,
      "𝐆": 554,
      "𝐇": 555,
      "𝐈": 556,
      "𝐉": 557,
      "𝐊": 558,
      "𝐋": 559,
      "𝐌": 560,
      "𝐍": 561,
      "𝐎": 562,
      "𝐏": 563,
      "𝐑": 564,
      "𝐒": 565,
      "𝐓": 566,
      "𝐔": 567,
      "𝐕": 568,
      "𝐖": 569,
      "𝐘": 570,
      "𝐚": 571,
      "𝐛": 572,
      "𝐜": 573,
      "𝐝": 574,
      "𝐞": 575,
      "𝐟": 576,
      "𝐠": 577,
      "𝐡": 578,
      "𝐢": 579,
      "𝐣": 580,
      "𝐤": 581,
      "𝐥": 582,
      "𝐦": 583,
      "𝐧": 584,
      "𝐨": 585,
      "𝐩": 586,
      "𝐫": 587,
      "𝐬": 588,
      "𝐭": 589,
      "𝐮": 590,
      "𝐯": 591,
      "𝐰": 592,
      "𝐱": 593,
      "𝐲": 594,
      "𝑎": 595,
      "𝑏": 596,
      "𝑑": 597,
      "𝑒": 598,
      "𝑔": 599,
      "𝑖": 600,
      "𝑘": 601,
      "𝑙": 602,
      "𝑚": 603,
      "𝑛": 604,
      "𝑜": 605,
      "𝑝": 606,
      "𝑟": 607,
      "𝑠": 608,
      "𝑡": 609,
      "𝑢": 610,
      "𝑦": 611,
      "𝑨": 612,
      "𝑩": 613,
      "𝑫": 614,
      "𝑬": 615,
      "𝑮": 616,
      "𝑯": 617,
      "𝑰": 618,
      "𝑱": 619,
      "𝑲": 620,
      "𝑳": 621,
      "𝑴": 622,
      "𝑵": 623,
      "𝑶": 624,
      "𝑷": 625,
      "𝑹": 626,
      "𝑺": 627,
      "𝑻": 628,
      "𝑼": 629,
      "𝑾": 630,
      "𝒀": 631,
      "子": 632,
      "𝒂": 633,
      "𝒃": 634,
      "𝒄": 635,
      "𝒅": 636,
      "𝒆": 637,
      "𝒈": 638,
      "𝒉": 639,
      "𝒊": 640,
      "𝒋": 641,
      "𝒌": 642,
      "𝒍": 643,
      "𝒎": 644,
      "𝒏": 645,
      "𝒐": 646,
      "𝒑": 647,
      "𝒓": 648,
      "𝒔": 649,
      "𝒕": 650,
      "𝒖": 651,
      "𝒘": 652,
      "𝒚": 653,
      "𝒶": 654,
      "𝒹": 655,
      "𝒽": 656,
      "𝒾": 657,
      "𝓀": 658,
      "𝓂": 659,
      "𝓃": 660,
      "𝓉": 661,
      "𝓊": 662,
      "𝓎": 663,
      "𝓜": 664,
      "𝓟": 665,
      "𝓢": 666,
      "𝓪": 667,
      "𝓫": 668,
      "𝓬": 669,
      "𝓭": 670,
      "𝓮": 671,
      "𝓱": 672,
      "𝓲": 673,
      "𝓶": 674,
      "𝓷": 675,
      "𝓸": 676,
      "𝓻": 677,
      "𝓼": 678,
      "𝓽": 679,
      "𝓾": 680,
      "𝔂": 681,
      "𝔸": 682,
      "𝔹": 683,
      "𝔻": 684,
      "𝔼": 685,
      "𝔽": 686,
      "𝕁": 687,
      "𝕂": 688,
      "𝕆": 689,
      "𝕊": 690,
      "𝕋": 691,
      "𝕌": 692,
      "𝕍": 693,
      "𝕒": 694,
      "𝕓": 695,
      "𝕔": 696,
      "𝕕": 697,
      "𝕖": 698,
      "𝕘": 699,
      "𝕙": 700,
      "日": 701,
      "𝕚": 702,
      "𝕜": 703,
      "𝕝": 704,
      "𝕞": 705,
      "𝕟": 706,
      "𝕠": 707,
      "𝕡": 708,
      "𝕣": 709,
      "𝕤": 710,
      "𝕥": 711,
      "𝕦": 712,
      "𝕪": 713,
      "𝕫": 714,
      "𝕶": 715,
      "𝕻": 716,
      "𝕽": 717,
      "𝕾": 718,
      "𝖆": 719,
      "𝖇": 720,
      "𝖉": 721,
      "𝖊": 722,
      "𝖋": 723,
      "𝖌": 724,
      "𝖍": 725,
      "𝖎": 726,
      "𝖏": 727,
      "𝖐": 728,
      "𝖑": 729,
      "𝖒": 730,
      "𝖓": 731,
      "𝖔": 732,
      "𝖕": 733,
      "𝖗": 734,
      "𝖘": 735,
      "𝖙": 736,
      "𝖚": 737,
      "𝖞": 738,
      "𝖺": 739,
      "𝗂": 740,
      "𝗔": 741,
      "𝗕": 742,
      "𝗖": 743,
      "𝗗": 744,
      "𝗘": 745,
      "𝗙": 746,
      "𝗚": 747,
      "𝗛": 748,
      "𝗜": 749,
      "𝗝": 750,
      "𝗞": 751,
      "𝗟": 752,
      "𝗠": 753,
      "𝗡": 754,
      "𝗢": 755,
      "𝗣": 756,
      "𝗥": 757,
      "𝗦": 758,
      "𝗧": 759,
      "𝗨": 760,
      "𝗩": 761,
      "𝗪": 762,
      "𝗬": 763,
      "生": 764,
      "𝗮": 765,
      "𝗯": 766,
      "𝗰": 767,
      "𝗱": 768,
      "𝗲": 769,
      "𝗳": 770,
      "𝗴": 771,
      "𝗵": 772,
      "𝗶": 773,
      "𝗷": 774,
      "𝗸": 775,
      "𝗹": 776,
      "𝗺": 777,
      "𝗻": 778,
      "神": 779,
      "𝗼": 780,
      "𝗽": 781,
      "𝗿": 782,
      "𝘀": 783,
      "𝘁": 784,
      "𝘂": 785,
      "𝘃": 786,
      "𝘄": 787,
      "𝘆": 788,
      "𝘇": 789,
      "𝘈": 790,
      "𝘉": 791,
      "𝘐": 792,
      "𝘔": 793,
      "𝘕": 794,
      "𝘚": 795,
      "𝘛": 796,
      "𝘢": 797,
      "𝘣": 798,
      "𝘤": 799,
      "𝘥": 800,
      "𝘦": 801,
      "𝘧": 802,
      "𝘨": 803,
      "𝘩": 804,
      "𝘪": 805,
      "𝘫": 806,
      "𝘬": 807,
      "𝘭": 808,
      "𝘮": 809,
      "𝘯": 810,
      "𝘰": 811,
      "𝘱": 812,
      "𝘳": 813,
      "𝘴": 814,
      "𝘵": 815,
      "𝘶": 816,
      "𝘷": 817,
      "𝘸": 818,
      "𝘺": 819,
      "𝘼": 820,
      "𝘽": 821,
      "𝘾": 822,
      "𝘿": 823,
      "𝙀": 824,
      "𝙁": 825,
      "𝙂": 826,
      "𝙃": 827,
      "𝙄": 828,
      "𝙅": 829,
      "𝙆": 830,
      "𝙇": 831,
      "𝙈": 832,
      "𝙉": 833,
      "𝙊": 834,
      "𝙋": 835,
      "𝙍": 836,
      "𝙎": 837,
      "𝙏": 838,
      "𝙐": 839,
      "𝙑": 840,
      "𝙒": 841,
      "𝙔": 842,
      "𝙖": 843,
      "𝙗": 844,
      "𝙘": 845,
      "𝙙": 846,
      "𝙚": 847,
      "𝙛": 848,
      "𝙜": 849,
      "𝙝": 850,
      "𝙞": 851,
      "𝙟": 852,
      "𝙠": 853,
      "𝙡": 854,
      "𝙢": 855,
      "𝙣": 856,
      "𝙤": 857,
      "𝙥": 858,
      "𝙧": 859,
      "𝙨": 860,
      "𝙩": 861,
      "𝙪": 862,
      "𝙫": 863,
      "𝙬": 864,
      "𝙮": 865,
      "𝙰": 866,
      "𝙱": 867,
      "𝙸": 868,
      "𝙺": 869,
      "𝙼": 870,
      "𝙽": 871,
      "𝚄": 872,
      "𝚊": 873,
      "𝚋": 874,
      "𝚌": 875,
      "𝚍": 876,
      "𝚎": 877,
      "𝚐": 878,
      "𝚑": 879,
      "𝚒": 880,
      "𝚓": 881,
      "𝚔": 882,
      "𝚕": 883,
      "𝚖": 884,
      "𝚗": 885,
      "𝚘": 886,
      "𝚙": 887,
      "𝚛": 888,
      "𝚜": 889,
      "𝚝": 890,
      "𝚞": 891,
      "ﷺ": 892,
      "𝟎": 893,
      "𝟏": 894,
      "𝟐": 895,
      "𝟑": 896,
      "𝟒": 897,
      "𝟓": 898,
      "𝟔": 899,
      "𝟕": 900,
      "𝟖": 901,
      "𝟗": 902,
      "𝟬": 903,
      "𝟭": 904,
      "𝟮": 905,
      "𝟯": 906,
      "𝟱": 907,
      "𝟵": 908,
      "🄿": 909,
      "🅳": 910,
      "🅴": 911,
      "🅷": 912,
      "🅸": 913,
      "🅽": 914,
      "🆁": 915,
      "🆂": 916,
      "🆃": 917,
      "🆄": 918,
      "🖒": 919,
      "🤌": 920,
      "！": 921,
      "（": 922,
      "）": 923,
      "，": 924,
      "：": 925,
      "🥲": 926,
      "￼": 927,
      "##o": 928,
      "##e": 929,
      "##t": 930,
      "##m": 931,
      "##l": 932,
      "##d": 933,
      "##r": 934,
      "##n": 935,
      "##a": 936,
      "##b": 937,
      "##g": 938,
      "##i": 939,
      "##p": 940,
      "##w": 941,
      "##k": 942,
      "##u": 943,
      "##s": 944,
      "##h": 945,
      "##0": 946,
      "##4": 947,
      "##6": 948,
      "##c": 949,
      "##y": 950,
      "##z": 951,
      "##2": 952,
      "##9": 953,
      "##j": 954,
      "##f": 955,
      "##°": 956,
      "##v": 957,
      "##7": 958,
      "##5": 959,
      "##±": 960,
      "##q": 961,
      "##x": 962,
      "##8": 963,
      "##3": 964,
      "##1": 965,
      "##ᅵ": 966,
      "##ᆸ": 967,
      "##ᄉ": 968,
      "##ᅮ": 969,
      "##ᆯ": 970,
      "##ᄋ": 971,
      "##ᅳ": 972,
      "##ᅡ": 973,
      "##ᄌ": 974,
      "##ᄒ": 975,
      "##ᄆ": 976,
      "##ا": 977,
      "##ن": 978,
      "##ى": 979,
      "##º": 980,
      "##ɗ": 981,
      "##ق": 982,
      "##م": 983,
      "##ي": 984,
      "##र": 985,
      "##┈": 986,
      "##𝘢": 987,
      "##ل": 988,
      "##ـ": 989,
      "##ه": 990,
      "##ذ": 991,
      "##ø": 992,
      "##د": 993,
      "##س": 994,
      "##𝘯": 995,
      "##サ": 996,
      "##ス": 997,
      "##ロ": 998,
      "##ー": 999,
      "##𝘛": 1000,
      "##ン": 1001,
      "##ク": 1002,
      "##ラ": 1003,
      "##𝙚": 1004,
      "##シ": 1005,
      "##𝙣": 1006,
      "##ᅢ": 1007,
      "##ᄂ": 1008,
      "##ᅥ": 1009,
      "##ᅯ": 1010,
      "##ص": 1011,
      "##ᅱ": 1012,
      "##ᄇ": 1013,
      "##ル": 1014,
      "##ش": 1015,
      "##ت": 1016,
      "##ر": 1017,
      "##ط": 1018,
      "##ف": 1019,
      "##𝙟": 1020,
      "##𝙪": 1021,
      "##𝙖": 1022,
      "##𝙜": 1023,
      "##ج": 1024,
      "##ᆷ": 1025,
      "##ᆫ": 1026,
      "##α": 1027,
      "##𝗽": 1028,
      "##ω": 1029,
      "##خ": 1030,
      "##ك": 1031,
      "##𝗴": 1032,
      "##𝗿": 1033,
      "##な": 1034,
      "##い": 1035,
      "##ع": 1036,
      "##ة": 1037,
      "##𝗮": 1038,
      "##𝗱": 1039,
      "##𝗲": 1040,
      "##⠀": 1041,
      "##н": 1042,
      "##✩": 1043,
      "##ㅤ": 1044,
      "##ι": 1045,
      "##𝘦": 1046,
      "##𝘮": 1047,
      "##𝘀": 1048,
      "##𝘁": 1049,
      "##𝗟": 1050,
      "##𝚎": 1051,
      "##𝚊": 1052,
      "##𝗻": 1053,
      "##ᅩ": 1054,
      "##ᄅ": 1055,
      "##ð": 1056,
      "##ث": 1057,
      "##و": 1058,
      "##￼": 1059,
      "##×": 1060,
      "##𝘆": 1061,
      "##𝘂": 1062,
      "##𝗹": 1063,
      "##т": 1064,
      "##𝗔": 1065,
      "##𝗥": 1066,
      "##𝗡": 1067,
      "##ᄃ": 1068,
      "##ᄀ": 1069,
      "##𝗧": 1070,
      "##ظ": 1071,
      "##𝗜": 1072,
      "##บ": 1073,
      "##ᆼ": 1074,
      "##╥": 1075,
      "##𝗢": 1076,
      "##𝗣": 1077,
      "##ᅧ": 1078,
      "##ᅪ": 1079,
      "##𝐲": 1080,
      "##𝐨": 1081,
      "##я": 1082,
      "##¹": 1083,
      "##ᵐ": 1084,
      "##ア": 1085,
      "##イ": 1086,
      "##ト": 1087,
      "##ᵃ": 1088,
      "##ᵘ": 1089,
      "##ม": 1090,
      "##อ": 1091,
      "##ง": 1092,
      "##ส": 1093,
      "##น": 1094,
      "##ⁿ": 1095,
      "##ⁱ": 1096,
      "##♡": 1097,
      "##ƪ": 1098,
      "##ᆨ": 1099,
      "##˘": 1100,
      "##𝗺": 1101,
      "##𝐠": 1102,
      "##´": 1103,
      "##υ": 1104,
      "##𝐚": 1105,
      "##𝐤": 1106,
      "##д": 1107,
      "##𝐫": 1108,
      "##𝐭": 1109,
      "##ب": 1110,
      "##か": 1111,
      "##𝚞": 1112,
      "##𝚋": 1113,
      "##ح": 1114,
      "##𝚛": 1115,
      "##ی": 1116,
      "##𝚔": 1117,
      "##𝗗": 1118,
      "##ε": 1119,
      "##𝗛": 1120,
      "##æ": 1121,
      "##フ": 1122,
      "##ᅴ": 1123,
      "##𝗙": 1124,
      "##𝗖": 1125,
      "##ʀ": 1126,
      "##¬": 1127,
      "##ᴜ": 1128,
      "##ض": 1129,
      "##ᴀ": 1130,
      "##ɴ": 1131,
      "##𝗦": 1132,
      "##𝗘": 1133,
      "##℅": 1134,
      "##𝐬": 1135,
      "##𝐞": 1136,
      "##𝐦": 1137,
      "##𝟵": 1138,
      "##โ": 1139,
      "##𝚒": 1140,
      "##𝚝": 1141,
      "##ı": 1142,
      "##ʰ": 1143,
      "##ㅠ": 1144,
      "##𝐧": 1145,
      "##ᅦ": 1146,
      "##ᄑ": 1147,
      "##𝐝": 1148,
      "##𝐢": 1149,
      "##𝘼": 1150,
      "##𝘿": 1151,
      "##𝙀": 1152,
      "##𝐍": 1153,
      "##𝐈": 1154,
      "##𝐒": 1155,
      "##𝐀": 1156,
      "##𝐓": 1157,
      "##ा": 1158,
      "##𝐅": 1159,
      "##🥲": 1160,
      "##ᄎ": 1161,
      "##³": 1162,
      "##𝗶": 1163,
      "##𝗵": 1164,
      "##𝚕": 1165,
      "##𝚜": 1166,
      "##ค": 1167,
      "##ก": 1168,
      "##า": 1169,
      "##ร": 1170,
      "##ห": 1171,
      "##ช": 1172,
      "##ᄐ": 1173,
      "##แ": 1174,
      "##ด": 1175,
      "##σ": 1176,
      "##𝒾": 1177,
      "##𝑜": 1178,
      "##𝑎": 1179,
      "##𝑝": 1180,
      "##𝑖": 1181,
      "##𝗯": 1182,
      "##𝑙": 1183,
      "##𝑛": 1184,
      "##𝟗": 1185,
      "##𝟎": 1186,
      "##𝘩": 1187,
      "##𝘨": 1188,
      "##𝘵": 1189,
      "##𝙊": 1190,
      "##ハ": 1191,
      "##𝙑": 1192,
      "##𝒆": 1193,
      "##𝒍": 1194,
      "##𝐖": 1195,
      "##ʲ": 1196,
      "##ɪ": 1197,
      "##ɐ": 1198,
      "##𝐋": 1199,
      "##𝒖": 1200,
      "##⁰": 1201,
      "##𝒌": 1202,
      "##𝐡": 1203,
      "##𝚖": 1204,
      "##ᄏ": 1205,
      "##ᅬ": 1206,
      "##ز": 1207,
      "##π": 1208,
      "##ㅡ": 1209,
      "##𝘃": 1210,
      "##━": 1211,
      "##𝘶": 1212,
      "##𝘺": 1213,
      "##✓": 1214,
      "##ᆻ": 1215,
      "##｀": 1216,
      "##𝖎": 1217,
      "##𝖘": 1218,
      "##²": 1219,
      "##𝖓": 1220,
      "##𝐥": 1221,
      "##𝐩": 1222,
      "##غ": 1223,
      "##𝙐": 1224,
      "##𝙈": 1225,
      "##ß": 1226,
      "##𝙋": 1227,
      "##𝗨": 1228,
      "##𝗠": 1229,
      "##▂": 1230,
      "##¯": 1231,
      "##𝙬": 1232,
      "##𝙠": 1233,
      "##𝙡": 1234,
      "##ᆽ": 1235,
      "##𝑲": 1236,
      "##𝒊": 1237,
      "##𝒔": 1238,
      "##𝒂": 1239,
      "##þ": 1240,
      "##𝒉": 1241,
      "##ว": 1242,
      "##𝘄": 1243,
      "##ಥ": 1244,
      "##╰": 1245,
      "##➤": 1246,
      "##𝘰": 1247,
      "##𝘥": 1248,
      "##𝐮": 1249,
      "##つ": 1250,
      "##𝐑": 1251,
      "##ᆺ": 1252,
      "##𝐁": 1253,
      "##𝗝": 1254,
      "##𝓪": 1255,
      "##の": 1256,
      "##𝓷": 1257,
      "##𝙞": 1258,
      "##˚": 1259,
      "##𝙥": 1260,
      "##═": 1261,
      "##𝒓": 1262,
      "##𝒐": 1263,
      "##っ": 1264,
      "##𝒅": 1265,
      "##𝒄": 1266,
      "##は": 1267,
      "##𝒕": 1268,
      "##𝒚": 1269,
      "##ʟ": 1270,
      "##ᴇ": 1271,
      "##𝟬": 1272,
      "##𝟭": 1273,
      "##ᄄ": 1274,
      "##œ": 1275,
      "##↷": 1276,
      "##𝟔": 1277,
      "##ء": 1278,
      "##𝐰": 1279,
      "##𝐜": 1280,
      "##ᅭ": 1281,
      "##⋅": 1282,
      "##ツ": 1283,
      "##𝘳": 1284,
      "##𝘇": 1285,
      "##𝐊": 1286,
      "##ะ": 1287,
      "##ป": 1288,
      "##ย": 1289,
      "##𝐘": 1290,
      "##ヽ": 1291,
      "##ᅨ": 1292,
      "##𝓮": 1293,
      "##𝓻": 1294,
      "##ா": 1295,
      "##𝘪": 1296,
      "##ம": 1297,
      "##ி": 1298,
      "##𝙨": 1299,
      "##𝙩": 1300,
      "##𝙢": 1301,
      "##𝙤": 1302,
      "##⛧": 1303,
      "##𝒎": 1304,
      "##ミ": 1305,
      "##ㅎ": 1306,
      "##จ": 1307,
      "##𝐔": 1308,
      "##ு": 1309,
      "##𝙧": 1310,
      "##த": 1311,
      "##☻": 1312,
      "##𝙍": 1313,
      "##𝙝": 1314,
      "##𝙫": 1315,
      "##𝗸": 1316,
      "##ข": 1317,
      "##𝘴": 1318,
      "##𝔸": 1319,
      "##𝐎": 1320,
      "##ᅲ": 1321,
      "##𝐌": 1322,
      "##เ": 1323,
      "##𝗼": 1324,
      "##𝘬": 1325,
      "##𝙙": 1326,
      "##▬": 1327,
      "##˃": 1328,
      "##¼": 1329,
      "##⚘": 1330,
      "##𝐛": 1331,
      "##ㅋ": 1332,
      "##╱": 1333,
      "##╹": 1334,
      "##ᅣ": 1335,
      "##𝙏": 1336,
      "##ᵉ": 1337,
      "##ᵇ": 1338,
      "##ᵍ": 1339,
      "##ʸ": 1340,
      "##ʔ": 1341,
      "##☆": 1342,
      "##𝘸": 1343,
      "##❝": 1344,
      "##𝒏": 1345,
      "##✦": 1346,
      "##ᶜ": 1347,
      "##ล": 1348,
      "##พ": 1349,
      "##ต": 1350,
      "##ᴏ": 1351,
      "##𝘭": 1352,
      "##𝔼": 1353,
      "##𝕊": 1354,
      "##ப": 1355,
      "##𝕆": 1356,
      "##€": 1357,
      "##ᵗ": 1358,
      "##ᵒ": 1359,
      "##▽": 1360,
      "##￣": 1361,
      "##ₐ": 1362,
      "##𝒃": 1363,
      "##ㅅ": 1364,
      "##𝑢": 1365,
      "##𝑔": 1366,
      "##ノ": 1367,
      "##𝒋": 1368,
      "##→": 1369,
      "##ท": 1370,
      "##𝗕": 1371,
      "##𝘷": 1372,
      "##¨": 1373,
      "##ச": 1374,
      "##𝐣": 1375,
      "##÷": 1376,
      "##𝘣": 1377,
      "##𝙘": 1378,
      "##🖒": 1379,
      "##𝗚": 1380,
      "##𝙗": 1381,
      "##𝑡": 1382,
      "##𝑚": 1383,
      "##ㅜ": 1384,
      "##𝚗": 1385,
      "##ʳ": 1386,
      "##𝘐": 1387,
      "##𝘕": 1388,
      "##𝘈": 1389,
      "##𝐄": 1390,
      "##ﾟ": 1391,
      "##𝙉": 1392,
      "##𝙄": 1393,
      "##½": 1394,
      "##𝘾": 1395,
      "##𝓲": 1396,
      "##𝐟": 1397,
      "##ｅ": 1398,
      "##ｒ": 1399,
      "##ｎ": 1400,
      "##⃝": 1401,
      "##⃟": 1402,
      "##˂": 1403,
      "##𝚑": 1404,
      "##ʖ": 1405,
      "##𝕖": 1406,
      "##𝕟": 1407,
      "##𝕥": 1408,
      "##𝕚": 1409,
      "##𝕘": 1410,
      "##𝙇": 1411,
      "##𝙔": 1412,
      "##𝓼": 1413,
      "##𝓽": 1414,
      "##╗": 1415,
      "##𝙃": 1416,
      "##𝙆": 1417,
      "##└": 1418,
      "##𝕤": 1419,
      "##𝒑": 1420,
      "##❀": 1421,
      "##✿": 1422,
      "##𝖗": 1423,
      "##𝑒": 1424,
      "##𝑘": 1425,
      "##ᵏ": 1426,
      "##√": 1427,
      "##𝗂": 1428,
      "##𝖺": 1429,
      "##𝐇": 1430,
      "##𝐂": 1431,
      "##★": 1432,
      "##𝒶": 1433,
      "##○": 1434,
      "##𝓉": 1435,
      "##↑": 1436,
      "##𝓎": 1437,
      "##๑": 1438,
      "##↓": 1439,
      "##¥": 1440,
      "##ғ": 1441,
      "##𝟐": 1442,
      "##𝟏": 1443,
      "##─": 1444,
      "##ˢ": 1445,
      "##¢": 1446,
      "##𝚍": 1447,
      "##ᄁ": 1448,
      "##∆": 1449,
      "##£": 1450,
      "##𝚘": 1451,
      "##╭": 1452,
      "##⊱": 1453,
      "##┊": 1454,
      "##ａ": 1455,
      "##╝": 1456,
      "##≤": 1457,
      "##𝐕": 1458,
      "##𝙮": 1459,
      "##ᄊ": 1460,
      "##₩": 1461,
      "##𝑺": 1462,
      "##𝐃": 1463,
      "##█": 1464,
      "##𝑼": 1465,
      "##𝑴": 1466,
      "##˙": 1467,
      "##►": 1468,
      "##𝑨": 1469,
      "##𝑫": 1470,
      "##𝑰": 1471,
      "##◦": 1472,
      "##●": 1473,
      "##❞": 1474,
      "##∀": 1475,
      "##an": 1476,
      "##er": 1477,
      "##en": 1478,
      "##ar": 1479,
      "##ang": 1480,
      "##at": 1481,
      "##ah": 1482,
      "##al": 1483,
      "##ak": 1484,
      "di": 1485,
      "##as": 1486,
      "##am": 1487,
      "##in": 1488,
      "##em": 1489,
      "se": 1490,
      "men": 1491,
      "##un": 1492,
      "##kan": 1493,
      "##ya": 1494,
      "##el": 1495,
      "##tu": 1496,
      "yang": 1497,
      "##ad": 1498,
      "##si": 1499,
      "ke": 1500,
      "dan": 1501,
      "##ap": 1502,
      "##on": 1503,
      "##ai": 1504,
      "ber": 1505,
      "##il": 1506,
      "in": 1507,
      "##eng": 1508,
      "##is": 1509,
      "##ik": 1510,
      "ter": 1511,
      "##ta": 1512,
      "per": 1513,
      "##ur": 1514,
      "##ari": 1515,
      "##us": 1516,
      "##ag": 1517,
      "##ing": 1518,
      "##nya": 1519,
      "##es": 1520,
      "##um": 1521,
      "##or": 1522,
      "##bu": 1523,
      "mem": 1524,
      "##ti": 1525,
      "##ul": 1526,
      "##ara": 1527,
      "##id": 1528,
      "meng": 1529,
      "##ir": 1530,
      "##ada": 1531,
      "##uk": 1532,
      "##ek": 1533,
      "##ga": 1534,
      "##ol": 1535,
      "##ung": 1536,
      "##it": 1537,
      "##akan": 1538,
      "##asi": 1539,
      "ini": 1540,
      "un": 1541,
      "dari": 1542,
      "ad": 1543,
      "##engan": 1544,
      "dengan": 1545,
      "##alam": 1546,
      "##tuk": 1547,
      "##et": 1548,
      "##im": 1549,
      "an": 1550,
      "##alah": 1551,
      "pen": 1552,
      "mer": 1553,
      "##ud": 1554,
      "##ama": 1555,
      "##ut": 1556,
      "##om": 1557,
      "dalam": 1558,
      "untuk": 1559,
      "pada": 1560,
      "seb": 1561,
      "##up": 1562,
      "##eb": 1563,
      "##ian": 1564,
      "##aw": 1565,
      "##ab": 1566,
      "##ih": 1567,
      "pem": 1568,
      "pr": 1569,
      "itu": 1570,
      "##adi": 1571,
      "##eh": 1572,
      "##uh": 1573,
      "##aj": 1574,
      "##ia": 1575,
      "##anya": 1576,
      "##eg": 1577,
      "tid": 1578,
      "##per": 1579,
      "tidak": 1580,
      "adalah": 1581,
      "##esi": 1582,
      "##atan": 1583,
      "##and": 1584,
      "##se": 1585,
      "##angan": 1586,
      "##ay": 1587,
      "##aya": 1588,
      "##ain": 1589,
      "##ok": 1590,
      "##agai": 1591,
      "##ter": 1592,
      "mel": 1593,
      "ju": 1594,
      "##amp": 1595,
      "##ed": 1596,
      "##ukan": 1597,
      "or": 1598,
      "sel": 1599,
      "tah": 1600,
      "menj": 1601,
      "peng": 1602,
      "##aan": 1603,
      "##ber": 1604,
      "##tr": 1605,
      "al": 1606,
      "##elah": 1607,
      "ol": 1608,
      "mas": 1609,
      "##but": 1610,
      "20": 1611,
      "##ali": 1612,
      "bah": 1613,
      "juga": 1614,
      "##apat": 1615,
      "kar": 1616,
      "oleh": 1617,
      "##atu": 1618,
      "sem": 1619,
      "tahun": 1620,
      "kem": 1621,
      "##ent": 1622,
      "##end": 1623,
      "sebagai": 1624,
      "kep": 1625,
      "##eka": 1626,
      "meny": 1627,
      "##pat": 1628,
      "##ua": 1629,
      "##wa": 1630,
      "sek": 1631,
      "ak": 1632,
      "mereka": 1633,
      "akan": 1634,
      "##os": 1635,
      "##ita": 1636,
      "##isi": 1637,
      "##ana": 1638,
      "ind": 1639,
      "##ata": 1640,
      "##ant": 1641,
      "##od": 1642,
      "##ub": 1643,
      "ata": 1644,
      "##ｏ": 1645,
      "orang": 1646,
      "atau": 1647,
      "ser": 1648,
      "menjadi": 1649,
      "##ati": 1650,
      "19": 1651,
      "##ika": 1652,
      "##ong": 1653,
      "##asa": 1654,
      "##ep": 1655,
      "##lah": 1656,
      "##ac": 1657,
      "##ena": 1658,
      "##ot": 1659,
      "##uan": 1660,
      "##og": 1661,
      "##ahan": 1662,
      "bag": 1663,
      "##amb": 1664,
      "bar": 1665,
      "kel": 1666,
      "##ri": 1667,
      "##usi": 1668,
      "##op": 1669,
      "pert": 1670,
      "##any": 1671,
      "memb": 1672,
      "as": 1673,
      "##aran": 1674,
      "ap": 1675,
      "tersebut": 1676,
      "ia": 1677,
      "ker": 1678,
      "##angk": 1679,
      "ar": 1680,
      "##ib": 1681,
      "##angg": 1682,
      "##iri": 1683,
      "ada": 1684,
      "##anj": 1685,
      "karena": 1686,
      "##int": 1687,
      "is": 1688,
      "##ala": 1689,
      "lain": 1690,
      "mend": 1691,
      "200": 1692,
      "##ebih": 1693,
      "##api": 1694,
      "##inya": 1695,
      "##alan": 1696,
      "bel": 1697,
      "neg": 1698,
      "##alu": 1699,
      "##ota": 1700,
      "har": 1701,
      "##ingg": 1702,
      "telah": 1703,
      "kon": 1704,
      "##upakan": 1705,
      "sa": 1706,
      "##cara": 1707,
      "dapat": 1708,
      "merupakan": 1709,
      "##emb": 1710,
      "ag": 1711,
      "##esia": 1712,
      "satu": 1713,
      "##ip": 1714,
      "indon": 1715,
      "lebih": 1716,
      "##ikan": 1717,
      "indonesia": 1718,
      "dik": 1719,
      "##asan": 1720,
      "##apa": 1721,
      "##esar": 1722,
      "##𝕒": 1723,
      "pend": 1724,
      "##perti": 1725,
      "sp": 1726,
      "sej": 1727,
      "##tas": 1728,
      "##ew": 1729,
      "seperti": 1730,
      "saya": 1731,
      "kita": 1732,
      "kom": 1733,
      "bis": 1734,
      "##ilik": 1735,
      "##udah": 1736,
      "bahwa": 1737,
      "##sa": 1738,
      "dis": 1739,
      "am": 1740,
      "tim": 1741,
      "pol": 1742,
      "dil": 1743,
      "##ᴊ": 1744,
      "set": 1745,
      "pas": 1746,
      "su": 1747,
      "pel": 1748,
      "##oh": 1749,
      "sebuah": 1750,
      "##uar": 1751,
      "berb": 1752,
      "##ingga": 1753,
      "tet": 1754,
      "##akukan": 1755,
      "##ungan": 1756,
      "##ja": 1757,
      "##anyak": 1758,
      "saat": 1759,
      "##akar": 1760,
      "ang": 1761,
      "menc": 1762,
      "##ind": 1763,
      "si": 1764,
      "##aik": 1765,
      "para": 1766,
      "kepada": 1767,
      "##ic": 1768,
      "tak": 1769,
      "ant": 1770,
      "##asil": 1771,
      "##gun": 1772,
      "##ob": 1773,
      "##ingk": 1774,
      "##orang": 1775,
      "berk": 1776,
      "bisa": 1777,
      "dip": 1778,
      "mak": 1779,
      "##ra": 1780,
      "man": 1781,
      "##asih": 1782,
      "kec": 1783,
      "tem": 1784,
      "##𝔂": 1785,
      "beb": 1786,
      "kes": 1787,
      "th": 1788,
      "secara": 1789,
      "##aja": 1790,
      "ked": 1791,
      "##aman": 1792,
      "##onal": 1793,
      "hal": 1794,
      "##hir": 1795,
      "##uj": 1796,
      "pemb": 1797,
      "sudah": 1798,
      "##agi": 1799,
      "dib": 1800,
      "dia": 1801,
      "##au": 1802,
      "sed": 1803,
      "ket": 1804,
      "bi": 1805,
      "negara": 1806,
      "##ov": 1807,
      "##da": 1808,
      "pemer": 1809,
      "par": 1810,
      "nam": 1811,
      "##osi": 1812,
      "##awa": 1813,
      "banyak": 1814,
      "##iliki": 1815,
      "sang": 1816,
      "dit": 1817,
      "setelah": 1818,
      "besar": 1819,
      "peny": 1820,
      "hanya": 1821,
      "seorang": 1822,
      "bagian": 1823,
      "da": 1824,
      "kam": 1825,
      "##arkan": 1826,
      "anak": 1827,
      "ben": 1828,
      "bers": 1829,
      "tan": 1830,
      "##yar": 1831,
      "um": 1832,
      "##angkan": 1833,
      "##unya": 1834,
      "##akarta": 1835,
      "baru": 1836,
      "##erapa": 1837,
      "fil": 1838,
      "tr": 1839,
      "##ch": 1840,
      "beberapa": 1841,
      "memiliki": 1842,
      "hari": 1843,
      "sen": 1844,
      "war": 1845,
      "##imp": 1846,
      "##🆂": 1847,
      "##🅴": 1848,
      "des": 1849,
      "kota": 1850,
      "keb": 1851,
      "dir": 1852,
      "namun": 1853,
      "dua": 1854,
      "masih": 1855,
      "##ᵖ": 1856,
      "sep": 1857,
      "terl": 1858,
      "pemerint": 1859,
      "##man": 1860,
      "rum": 1861,
      "st": 1862,
      "##idup": 1863,
      "ti": 1864,
      "ut": 1865,
      "##erah": 1866,
      "ek": 1867,
      "##gunakan": 1868,
      "##apan": 1869,
      "spesies": 1870,
      "##atakan": 1871,
      "##han": 1872,
      "##00": 1873,
      "##uran": 1874,
      "terj": 1875,
      "##tur": 1876,
      "terb": 1877,
      "harus": 1878,
      "##ungk": 1879,
      "##itas": 1880,
      "ka": 1881,
      "##ima": 1882,
      "dem": 1883,
      "##aku": 1884,
      "seh": 1885,
      "samp": 1886,
      "dim": 1887,
      "mar": 1888,
      "pertama": 1889,
      "##umlah": 1890,
      "##akat": 1891,
      "jakarta": 1892,
      "re": 1893,
      "pul": 1894,
      "##ini": 1895,
      "bagi": 1896,
      "atas": 1897,
      "kek": 1898,
      "antara": 1899,
      "##unan": 1900,
      "201": 1901,
      "wak": 1902,
      "##orm": 1903,
      "##emp": 1904,
      "##ᇀ": 1905,
      "sangat": 1906,
      "pers": 1907,
      "tent": 1908,
      "kr": 1909,
      "pe": 1910,
      "salah": 1911,
      "rumah": 1912,
      "##ulan": 1913,
      "##aga": 1914,
      "ch": 1915,
      "kemudian": 1916,
      "##urut": 1917,
      "##atkan": 1918,
      "##eri": 1919,
      "##ni": 1920,
      "mul": 1921,
      "member": 1922,
      "memper": 1923,
      "##anc": 1924,
      "tetapi": 1925,
      "##gi": 1926,
      "##yat": 1927,
      "##usia": 1928,
      "mengh": 1929,
      "##unia": 1930,
      "##ingan": 1931,
      "sebel": 1932,
      "send": 1933,
      "##uhan": 1934,
      "en": 1935,
      "##uti": 1936,
      "##lam": 1937,
      "##hadap": 1938,
      "kor": 1939,
      "sebelum": 1940,
      "##den": 1941,
      "diper": 1942,
      "##ihat": 1943,
      "##unj": 1944,
      "##inan": 1945,
      "##yarakat": 1946,
      "ses": 1947,
      "##gan": 1948,
      "tingg": 1949,
      "dunia": 1950,
      "kata": 1951,
      "##pr": 1952,
      "ab": 1953,
      "pern": 1954,
      "berd": 1955,
      "masyarakat": 1956,
      "##awan": 1957,
      "##tor": 1958,
      "sama": 1959,
      "terd": 1960,
      "##aks": 1961,
      "ketika": 1962,
      "angg": 1963,
      "pun": 1964,
      "kh": 1965,
      "nama": 1966,
      "hingga": 1967,
      "##arang": 1968,
      "the": 1969,
      "##ug": 1970,
      "##utan": 1971,
      "##angs": 1972,
      "terhadap": 1973,
      "ing": 1974,
      "lagi": 1975,
      "did": 1976,
      "##entu": 1977,
      "##iv": 1978,
      "sendiri": 1979,
      "##atang": 1980,
      "sum": 1981,
      "kemb": 1982,
      "baik": 1983,
      "ku": 1984,
      "##itar": 1985,
      "##asional": 1986,
      "sis": 1987,
      "##ili": 1988,
      "berh": 1989,
      "pemerintah": 1990,
      "tempat": 1991,
      "##uas": 1992,
      "##engah": 1993,
      "kali": 1994,
      "daerah": 1995,
      "sampai": 1996,
      "jika": 1997,
      "sur": 1998,
      "serta": 1999,
      "##tif": 2000,
      "##ilan": 2001,
      "##ina": 2002,
      "##tan": 2003,
      "##li": 2004,
      "wil": 2005,
      "##enal": 2006,
      "##mas": 2007,
      "menurut": 2008,
      "mes": 2009,
      "akhir": 2010,
      "islam": 2011,
      "berl": 2012,
      "##usah": 2013,
      "semua": 2014,
      "selama": 2015,
      "##arah": 2016,
      "##ec": 2017,
      "pal": 2018,
      "desa": 2019,
      "##itik": 2020,
      "kembali": 2021,
      "terjadi": 2022,
      "kal": 2023,
      "bert": 2024,
      "hidup": 2025,
      "membuat": 2026,
      "il": 2027,
      "buk": 2028,
      "us": 2029,
      "##ilih": 2030,
      "bang": 2031,
      "##ui": 2032,
      "##ani": 2033,
      "sekitar": 2034,
      "seti": 2035,
      "tentang": 2036,
      "saja": 2037,
      "din": 2038,
      "air": 2039,
      "##𝚙": 2040,
      "so": 2041,
      "te": 2042,
      "aw": 2043,
      "##ont": 2044,
      "anda": 2045,
      "##di": 2046,
      "umum": 2047,
      "kedua": 2048,
      "##apkan": 2049,
      "jalan": 2050,
      "gen": 2051,
      "ger": 2052,
      "##anda": 2053,
      "bukan": 2054,
      "waktu": 2055,
      "##na": 2056,
      "keluar": 2057,
      "##ensi": 2058,
      "##ka": 2059,
      "##inta": 2060,
      "##le": 2061,
      "##ayu": 2062,
      "melakukan": 2063,
      "apa": 2064,
      "inter": 2065,
      "##olog": 2066,
      "dilakukan": 2067,
      "lalu": 2068,
      "maka": 2069,
      "##ump": 2070,
      "mah": 2071,
      "##aikan": 2072,
      "br": 2073,
      "##┻": 2074,
      "##aca": 2075,
      "terk": 2076,
      "belum": 2077,
      "pes": 2078,
      "##ayah": 2079,
      "dep": 2080,
      "sehingga": 2081,
      "warga": 2082,
      "sh": 2083,
      "##ban": 2084,
      "##uruh": 2085,
      "##und": 2086,
      "kami": 2087,
      "##to": 2088,
      "##era": 2089,
      "film": 2090,
      "mal": 2091,
      "me": 2092,
      "em": 2093,
      "bu": 2094,
      "##ᄍ": 2095,
      "##bang": 2096,
      "bahasa": 2097,
      "##entara": 2098,
      "##ukum": 2099,
      "10": 2100,
      "mendapat": 2101,
      "##enc": 2102,
      "sementara": 2103,
      "anggota": 2104,
      "##me": 2105,
      "masa": 2106,
      "tangg": 2107,
      "ri": 2108,
      "##iran": 2109,
      "##mi": 2110,
      "##angsung": 2111,
      "manusia": 2112,
      "bersama": 2113,
      "##ju": 2114,
      "sejak": 2115,
      "wilayah": 2116,
      "199": 2117,
      "min": 2118,
      "##do": 2119,
      "##omp": 2120,
      "##olah": 2121,
      "barat": 2122,
      "##aki": 2123,
      "art": 2124,
      "yaitu": 2125,
      "##ulis": 2126,
      "jawa": 2127,
      "##antu": 2128,
      "diri": 2129,
      "suk": 2130,
      "##eker": 2131,
      "##anjang": 2132,
      "keh": 2133,
      "presiden": 2134,
      "berp": 2135,
      "##ila": 2136,
      "pernah": 2137,
      "##ahkan": 2138,
      "tiga": 2139,
      "##sia": 2140,
      "lainnya": 2141,
      "##egi": 2142,
      "gr": 2143,
      "mat": 2144,
      "de": 2145,
      "##𝕪": 2146,
      "##ki": 2147,
      "##lik": 2148,
      "##amatan": 2149,
      "##ow": 2150,
      "##alui": 2151,
      "##oleh": 2152,
      "##𝓃": 2153,
      "mus": 2154,
      "la": 2155,
      "hukum": 2156,
      "18": 2157,
      "##oy": 2158,
      "perl": 2159,
      "##etak": 2160,
      "##ingkat": 2161,
      "kap": 2162,
      "##alis": 2163,
      "kas": 2164,
      "##ilai": 2165,
      "##alnya": 2166,
      "tapi": 2167,
      "kur": 2168,
      "##onom": 2169,
      "suatu": 2170,
      "##ʕ": 2171,
      "tengah": 2172,
      "##alia": 2173,
      "##eli": 2174,
      "selain": 2175,
      "perk": 2176,
      "##elas": 2177,
      "##olong": 2178,
      "##est": 2179,
      "melalui": 2180,
      "##annya": 2181,
      "##ihak": 2182,
      "##𝙅": 2183,
      "seg": 2184,
      "timur": 2185,
      "bulan": 2186,
      "##pa": 2187,
      "##yah": 2188,
      "setiap": 2189,
      "berbagai": 2190,
      "komp": 2191,
      "##ungg": 2192,
      "pl": 2193,
      "tel": 2194,
      "##asanya": 2195,
      "##aksi": 2196,
      "##unc": 2197,
      "mulai": 2198,
      "kl": 2199,
      "amer": 2200,
      "negeri": 2201,
      "berm": 2202,
      "##ris": 2203,
      "memp": 2204,
      "##oduk": 2205,
      "im": 2206,
      "sesu": 2207,
      "##ans": 2208,
      "li": 2209,
      "##ori": 2210,
      "allah": 2211,
      "hasil": 2212,
      "##af": 2213,
      "##rop": 2214,
      "pihak": 2215,
      "menggunakan": 2216,
      "tinggi": 2217,
      "berj": 2218,
      "of": 2219,
      "##ungkin": 2220,
      "res": 2221,
      "##idikan": 2222,
      "mener": 2223,
      "##uduk": 2224,
      "terp": 2225,
      "##uda": 2226,
      "##ting": 2227,
      "##𝑠": 2228,
      "##ibat": 2229,
      "##ram": 2230,
      "sul": 2231,
      "##etah": 2232,
      "pus": 2233,
      "##akit": 2234,
      "##ons": 2235,
      "##uru": 2236,
      "##oc": 2237,
      "##tikan": 2238,
      "terg": 2239,
      "##ev": 2240,
      "##teri": 2241,
      "##utus": 2242,
      "ac": 2243,
      "mengg": 2244,
      "##𝗰": 2245,
      "##anan": 2246,
      "##ʜ": 2247,
      "tek": 2248,
      "##awah": 2249,
      "##mu": 2250,
      "##𝒈": 2251,
      "berada": 2252,
      "perm": 2253,
      "aku": 2254,
      "amerika": 2255,
      "kayu": 2256,
      "mis": 2257,
      "fr": 2258,
      "agar": 2259,
      "med": 2260,
      "tetap": 2261,
      "ma": 2262,
      "kelas": 2263,
      "##ikat": 2264,
      "rp": 2265,
      "##𝗩": 2266,
      "##insi": 2267,
      "sekali": 2268,
      "12": 2269,
      "sekolah": 2270,
      "kabupaten": 2271,
      "##ambil": 2272,
      "selatan": 2273,
      "kons": 2274,
      "cer": 2275,
      "biasanya": 2276,
      "partai": 2277,
      "##usan": 2278,
      "kecamatan": 2279,
      "kalau": 2280,
      "##ij": 2281,
      "band": 2282,
      "##ologi": 2283,
      "pros": 2284,
      "##form": 2285,
      "##awat": 2286,
      "##ank": 2287,
      "##ajar": 2288,
      "sistem": 2289,
      "##𝟖": 2290,
      "##agian": 2291,
      "bahkan": 2292,
      "politik": 2293,
      "##of": 2294,
      "##la": 2295,
      "hak": 2296,
      "cuk": 2297,
      "intern": 2298,
      "tanah": 2299,
      "##unjuk": 2300,
      "##apai": 2301,
      "##𝐱": 2302,
      "sejumlah": 2303,
      "termasuk": 2304,
      "##engk": 2305,
      "##arnya": 2306,
      "tanggal": 2307,
      "memberikan": 2308,
      "##upun": 2309,
      "kej": 2310,
      "dih": 2311,
      "disebut": 2312,
      "seluruh": 2313,
      "##ami": 2314,
      "luar": 2315,
      "and": 2316,
      "bud": 2317,
      "digunakan": 2318,
      "sal": 2319,
      "##eda": 2320,
      "##atif": 2321,
      "diter": 2322,
      "paling": 2323,
      "tu": 2324,
      "at": 2325,
      "##eter": 2326,
      "tanpa": 2327,
      "nasional": 2328,
      "eks": 2329,
      "tert": 2330,
      "jumlah": 2331,
      "pendidikan": 2332,
      "kat": 2333,
      "15": 2334,
      "put": 2335,
      "demikian": 2336,
      "ik": 2337,
      "sekarang": 2338,
      "##wan": 2339,
      "masalah": 2340,
      "mungkin": 2341,
      "##bit": 2342,
      "ken": 2343,
      "mengen": 2344,
      "##ikasi": 2345,
      "##ist": 2346,
      "##ikut": 2347,
      "##ig": 2348,
      "##tua": 2349,
      "##anjut": 2350,
      "rak": 2351,
      "cukup": 2352,
      "mod": 2353,
      "##akhir": 2354,
      "mengatakan": 2355,
      "##alkan": 2356,
      "##uc": 2357,
      "##idang": 2358,
      "jadi": 2359,
      "##mana": 2360,
      "ters": 2361,
      "memang": 2362,
      "11": 2363,
      "masing": 2364,
      "diber": 2365,
      "##engg": 2366,
      "##ola": 2367,
      "##auh": 2368,
      "sy": 2369,
      "kepala": 2370,
      "##entuk": 2371,
      "##akin": 2372,
      "proses": 2373,
      "up": 2374,
      "##usahaan": 2375,
      "fam": 2376,
      "beras": 2377,
      "##ard": 2378,
      "##tian": 2379,
      "pad": 2380,
      "##𝖊": 2381,
      "##ompok": 2382,
      "##ulu": 2383,
      "agama": 2384,
      "und": 2385,
      "##aian": 2386,
      "makan": 2387,
      "##agu": 2388,
      "str": 2389,
      "kecil": 2390,
      "perusahaan": 2391,
      "produk": 2392,
      "el": 2393,
      "ditem": 2394,
      "dij": 2395,
      "utara": 2396,
      "##ode": 2397,
      "##angka": 2398,
      "kini": 2399,
      "##𝖇": 2400,
      "benar": 2401,
      "terus": 2402,
      "lap": 2403,
      "##ilah": 2404,
      "##𝖆": 2405,
      "kasus": 2406,
      "cara": 2407,
      "utama": 2408,
      "##aknya": 2409,
      "masuk": 2410,
      "##asis": 2411,
      "polisi": 2412,
      "##ubungan": 2413,
      "##impin": 2414,
      "melihat": 2415,
      "##iter": 2416,
      "bangsa": 2417,
      "jam": 2418,
      "##ember": 2419,
      "mana": 2420,
      "ins": 2421,
      "##ma": 2422,
      "karya": 2423,
      "pusat": 2424,
      "rakyat": 2425,
      "keluarga": 2426,
      "##ampu": 2427,
      "##𝖌": 2428,
      "keti": 2429,
      "##𝖞": 2430,
      "##abat": 2431,
      "akhirnya": 2432,
      "##isasi": 2433,
      "##ej": 2434,
      "begitu": 2435,
      "dibu": 2436,
      "##𝚓": 2437,
      "##oid": 2438,
      "##ekerja": 2439,
      "##asar": 2440,
      "korban": 2441,
      "sebelumnya": 2442,
      "ah": 2443,
      "mil": 2444,
      "##awasan": 2445,
      "dew": 2446,
      "sedang": 2447,
      "buku": 2448,
      "##ubah": 2449,
      "bur": 2450,
      "##tiv": 2451,
      "##uli": 2452,
      "##𝚌": 2453,
      "ul": 2454,
      "dr": 2455,
      "pengh": 2456,
      "bawah": 2457,
      "pak": 2458,
      "jen": 2459,
      "langsung": 2460,
      "lama": 2461,
      "ru": 2462,
      "uj": 2463,
      "ob": 2464,
      "gel": 2465,
      "penc": 2466,
      "prov": 2467,
      "akibat": 2468,
      "sebagian": 2469,
      "##angi": 2470,
      "ib": 2471,
      "baca": 2472,
      "bat": 2473,
      "##asarkan": 2474,
      "dic": 2475,
      "univ": 2476,
      "ibu": 2477,
      "terdapat": 2478,
      "bentuk": 2479,
      "juta": 2480,
      "##ea": 2481,
      "##𝓭": 2482,
      "maj": 2483,
      "tuj": 2484,
      "##antan": 2485,
      "kelompok": 2486,
      "tok": 2487,
      "tur": 2488,
      "sosi": 2489,
      "##usus": 2490,
      "sc": 2491,
      "##aris": 2492,
      "lok": 2493,
      "pemain": 2494,
      "famili": 2495,
      "##ula": 2496,
      "gun": 2497,
      "ekonomi": 2498,
      "menem": 2499,
      "##unyai": 2500,
      "ketua": 2501,
      "##uni": 2502,
      "##formasi": 2503,
      "ingin": 2504,
      "##umi": 2505,
      "perlu": 2506,
      "tekn": 2507,
      "bl": 2508,
      "##ᵕ": 2509,
      "##disi": 2510,
      "kum": 2511,
      "sedangkan": 2512,
      "bal": 2513,
      "##𝓱": 2514,
      "mempunyai": 2515,
      "##ha": 2516,
      "pan": 2517,
      "##engar": 2518,
      "bern": 2519,
      "dig": 2520,
      "##alat": 2521,
      "##fa": 2522,
      "khusus": 2523,
      "awal": 2524,
      "program": 2525,
      "bad": 2526,
      "##ekat": 2527,
      "mampu": 2528,
      "##ٱ": 2529,
      "sumber": 2530,
      "tergolong": 2531,
      "##ender": 2532,
      "kerja": 2533,
      "perang": 2534,
      "##ayaan": 2535,
      "##╯": 2536,
      "##𝗬": 2537,
      "sah": 2538,
      "##st": 2539,
      "panjang": 2540,
      "meningg": 2541,
      "16": 2542,
      "dikenal": 2543,
      "penting": 2544,
      "mengenai": 2545,
      "provinsi": 2546,
      "pula": 2547,
      "penduduk": 2548,
      "17": 2549,
      "##tri": 2550,
      "tamp": 2551,
      "lemb": 2552,
      "##akah": 2553,
      "sk": 2554,
      "##uari": 2555,
      "menteri": 2556,
      "##askan": 2557,
      "##anggap": 2558,
      "198": 2559,
      "bagai": 2560,
      "##upa": 2561,
      "perd": 2562,
      "jep": 2563,
      "##ono": 2564,
      "##tar": 2565,
      "berasal": 2566,
      "##tera": 2567,
      "##isme": 2568,
      "##ro": 2569,
      "berikut": 2570,
      "jer": 2571,
      "penj": 2572,
      "inggris": 2573,
      "lagu": 2574,
      "##yak": 2575,
      "kamp": 2576,
      "##ᴄ": 2577,
      "musim": 2578,
      "ilmu": 2579,
      "##ublik": 2580,
      "empat": 2581,
      "##itan": 2582,
      "##oda": 2583,
      "000": 2584,
      "14": 2585,
      "##ᴛ": 2586,
      "on": 2587,
      "datang": 2588,
      "com": 2589,
      "perj": 2590,
      "##fat": 2591,
      "mencapai": 2592,
      "id": 2593,
      "sup": 2594,
      "13": 2595,
      "organ": 2596,
      "##etahui": 2597,
      "raja": 2598,
      "##din": 2599,
      "sil": 2600,
      "jelas": 2601,
      "mengaku": 2602,
      "menyatakan": 2603,
      "##aranya": 2604,
      "##alami": 2605,
      "##tim": 2606,
      "pener": 2607,
      "dar": 2608,
      "##mad": 2609,
      "##adaan": 2610,
      "##eta": 2611,
      "##lim": 2612,
      "undang": 2613,
      "berhasil": 2614,
      "pet": 2615,
      "depan": 2616,
      "ir": 2617,
      "terletak": 2618,
      "ii": 2619,
      "laut": 2620,
      "##angkat": 2621,
      "##angun": 2622,
      "ok": 2623,
      "##ˡ": 2624,
      "##ɓ": 2625,
      "dpr": 2626,
      "kawasan": 2627,
      "##araan": 2628,
      "fak": 2629,
      "##arik": 2630,
      "##omb": 2631,
      "perb": 2632,
      "sering": 2633,
      "##ira": 2634,
      "sebesar": 2635,
      "komun": 2636,
      "##eksi": 2637,
      "keraj": 2638,
      "berdasarkan": 2639,
      "##ꜱ": 2640,
      "menyebabkan": 2641,
      "anim": 2642,
      "selalu": 2643,
      "serikat": 2644,
      "##uhi": 2645,
      "wan": 2646,
      "nya": 2647,
      "##ond": 2648,
      "##utu": 2649,
      "gu": 2650,
      "jepang": 2651,
      "##uka": 2652,
      "##emen": 2653,
      "trans": 2654,
      "30": 2655,
      "##embangan": 2656,
      "##ungsi": 2657,
      "##ᴍ": 2658,
      "jenis": 2659,
      "alam": 2660,
      "harga": 2661,
      "##▄": 2662,
      "sejarah": 2663,
      "##ny": 2664,
      "lab": 2665,
      "rep": 2666,
      "2009": 2667,
      "pos": 2668,
      "##atih": 2669,
      "##bul": 2670,
      "##aha": 2671,
      "bahan": 2672,
      "bidang": 2673,
      "angk": 2674,
      "kehidup": 2675,
      "terakhir": 2676,
      "kurang": 2677,
      "##eks": 2678,
      "gol": 2679,
      "suara": 2680,
      "##perasi": 2681,
      "##ebut": 2682,
      "##ort": 2683,
      "##ura": 2684,
      "berg": 2685,
      "##▓": 2686,
      "jar": 2687,
      "sat": 2688,
      "##hi": 2689,
      "jauh": 2690,
      "##ukung": 2691,
      "nilai": 2692,
      "kerajaan": 2693,
      "##unt": 2694,
      "had": 2695,
      "##ail": 2696,
      "surat": 2697,
      "##ahir": 2698,
      "seri": 2699,
      "met": 2700,
      "nov": 2701,
      "tuhan": 2702,
      "kol": 2703,
      "mata": 2704,
      "bersi": 2705,
      "kondisi": 2706,
      "##ci": 2707,
      "##ilihan": 2708,
      "##𝗳": 2709,
      "kegi": 2710,
      "sub": 2711,
      "ji": 2712,
      "##𝑟": 2713,
      "sebab": 2714,
      "lima": 2715,
      "pemerintahan": 2716,
      "hubungan": 2717,
      "semakin": 2718,
      "king": 2719,
      "mendapatkan": 2720,
      "##uncul": 2721,
      "kegiatan": 2722,
      "malam": 2723,
      "dok": 2724,
      "##udi": 2725,
      "tubuh": 2726,
      "ud": 2727,
      "2008": 2728,
      "##ku": 2729,
      "kehidupan": 2730,
      "mur": 2731,
      "##unjukkan": 2732,
      "##ual": 2733,
      "perempuan": 2734,
      "##ern": 2735,
      "kant": 2736,
      "to": 2737,
      "aceh": 2738,
      "tum": 2739,
      "aj": 2740,
      "tangan": 2741,
      "hati": 2742,
      "bekerja": 2743,
      "adanya": 2744,
      "rasa": 2745,
      "le": 2746,
      "bank": 2747,
      "berbeda": 2748,
      "acara": 2749,
      "sw": 2750,
      "ten": 2751,
      "kend": 2752,
      "##imb": 2753,
      "keter": 2754,
      "uang": 2755,
      "tib": 2756,
      "pasukan": 2757,
      "wanita": 2758,
      "kab": 2759,
      "kad": 2760,
      "##urkan": 2761,
      "ped": 2762,
      "sosial": 2763,
      "sakit": 2764,
      "pulau": 2765,
      "sung": 2766,
      "##dom": 2767,
      "sesuai": 2768,
      "pat": 2769,
      "##ers": 2770,
      "be": 2771,
      "##𝑩": 2772,
      "menerima": 2773,
      "##atian": 2774,
      "menyel": 2775,
      "dasar": 2776,
      "col": 2777,
      "ram": 2778,
      "##utusan": 2779,
      "##air": 2780,
      "197": 2781,
      "muda": 2782,
      "##andang": 2783,
      "##alaman": 2784,
      "asal": 2785,
      "##anti": 2786,
      "##fi": 2787,
      "##tik": 2788,
      "lingk": 2789,
      "##uri": 2790,
      "##ine": 2791,
      "##isan": 2792,
      "kapal": 2793,
      "##𝘽": 2794,
      "cal": 2795,
      "muh": 2796,
      "kan": 2797,
      "##atur": 2798,
      "biasa": 2799,
      "kaum": 2800,
      "bab": 2801,
      "pember": 2802,
      "mengalami": 2803,
      "##eran": 2804,
      "bagaimana": 2805,
      "##buk": 2806,
      "ur": 2807,
      "##ril": 2808,
      "bila": 2809,
      "##ʏ": 2810,
      "apakah": 2811,
      "muncul": 2812,
      "jan": 2813,
      "##angga": 2814,
      "ist": 2815,
      "##ulai": 2816,
      "belanda": 2817,
      "tahu": 2818,
      "ot": 2819,
      "pasar": 2820,
      "##ambah": 2821,
      "##uatan": 2822,
      "##erang": 2823,
      "keber": 2824,
      "##ikuti": 2825,
      "##lo": 2826,
      "tinggal": 2827,
      "rek": 2828,
      "sm": 2829,
      "##asiswa": 2830,
      "##eja": 2831,
      "sungai": 2832,
      "25": 2833,
      "memas": 2834,
      "badan": 2835,
      "##fer": 2836,
      "##ฟ": 2837,
      "##pada": 2838,
      "terc": 2839,
      "##olak": 2840,
      "for": 2841,
      "tingkat": 2842,
      "##𝓂": 2843,
      "universitas": 2844,
      "##░": 2845,
      "seben": 2846,
      "arth": 2847,
      "it": 2848,
      "##min": 2849,
      "##𝘱": 2850,
      "informasi": 2851,
      "musik": 2852,
      "196": 2853,
      "boleh": 2854,
      "barang": 2855,
      "ribu": 2856,
      "memberi": 2857,
      "##𝘤": 2858,
      "bumi": 2859,
      "##res": 2860,
      "##az": 2861,
      "##utama": 2862,
      "##ƙ": 2863,
      "##nis": 2864,
      "pt": 2865,
      "##antai": 2866,
      "##war": 2867,
      "##epat": 2868,
      "tiba": 2869,
      "ng": 2870,
      "##ikit": 2871,
      "##obil": 2872,
      "##anding": 2873,
      "abad": 2874,
      "ko": 2875,
      "sesuatu": 2876,
      "terdiri": 2877,
      "tind": 2878,
      "dirinya": 2879,
      "lar": 2880,
      "##re": 2881,
      "mau": 2882,
      "##uga": 2883,
      "ny": 2884,
      "sab": 2885,
      "##bitkan": 2886,
      "##𝙎": 2887,
      "##tv": 2888,
      "bermain": 2889,
      "##ᴅ": 2890,
      "sedikit": 2891,
      "##enda": 2892,
      "##uanya": 2893,
      "sar": 2894,
      "prof": 2895,
      "##𝕙": 2896,
      "perc": 2897,
      "usaha": 2898,
      "##usaha": 2899,
      "sam": 2900,
      "po": 2901,
      "agus": 2902,
      "##ho": 2903,
      "kontr": 2904,
      "##entukan": 2905,
      "insec": 2906,
      "##𝕦": 2907,
      "##◉": 2908,
      "internasional": 2909,
      "##𝟯": 2910,
      "misalnya": 2911,
      "##𝕋": 2912,
      "##apun": 2913,
      "sin": 2914,
      "dianggap": 2915,
      "bak": 2916,
      "##istr": 2917,
      "##no": 2918,
      "yak": 2919,
      "ne": 2920,
      "##𝒘": 2921,
      "gereja": 2922,
      "sebenarnya": 2923,
      "menunjukkan": 2924,
      "membawa": 2925,
      "##oba": 2926,
      "2007": 2927,
      "mahasiswa": 2928,
      "##isti": 2929,
      "no": 2930,
      "##andingan": 2931,
      "##angunan": 2932,
      "tujuan": 2933,
      "##ator": 2934,
      "dekat": 2935,
      "terutama": 2936,
      "bin": 2937,
      "mad": 2938,
      "lay": 2939,
      "mobil": 2940,
      "sempat": 2941,
      "bernama": 2942,
      "daripada": 2943,
      "memer": 2944,
      "mo": 2945,
      "##rah": 2946,
      "jerman": 2947,
      "mengambil": 2948,
      "##adilan": 2949,
      "ras": 2950,
      "meminta": 2951,
      "perub": 2952,
      "pembangunan": 2953,
      "laki": 2954,
      "##arti": 2955,
      "cont": 2956,
      "##ikir": 2957,
      "##ampir": 2958,
      "bantu": 2959,
      "segera": 2960,
      "af": 2961,
      "jat": 2962,
      "##𝓊": 2963,
      "meskipun": 2964,
      "##embang": 2965,
      "##ry": 2966,
      "muslim": 2967,
      "ef": 2968,
      "bun": 2969,
      "batu": 2970,
      "dana": 2971,
      "ham": 2972,
      "##aksa": 2973,
      "kantor": 2974,
      "belak": 2975,
      "pi": 2976,
      "rom": 2977,
      "nom": 2978,
      "##ly": 2979,
      "##uhnya": 2980,
      "tokoh": 2981,
      "##ancis": 2982,
      "21": 2983,
      "##impinan": 2984,
      "perubahan": 2985,
      "sing": 2986,
      "pin": 2987,
      "##ongk": 2988,
      "##ᴘ": 2989,
      "perh": 2990,
      "pesawat": 2991,
      "##ilang": 2992,
      "luas": 2993,
      "##┓": 2994,
      "##ᴋ": 2995,
      "api": 2996,
      "bay": 2997,
      "mencari": 2998,
      "##ela": 2999,
      "##va": 3000,
      "jawab": 3001,
      "ketiga": 3002,
      "budaya": 3003,
      "ged": 3004,
      "makanan": 3005,
      "##abi": 3006,
      "penyel": 3007,
      "teg": 3008,
      "jal": 3009,
      "jiwa": 3010,
      "##ey": 3011,
      "##amanya": 3012,
      "##ohon": 3013,
      "##iman": 3014,
      "##ungi": 3015,
      "malay": 3016,
      "##ajaran": 3017,
      "##ation": 3018,
      "album": 3019,
      "##olusi": 3020,
      "pand": 3021,
      "lembaga": 3022,
      "##gab": 3023,
      "##ment": 3024,
      "memen": 3025,
      "posisi": 3026,
      "##yataan": 3027,
      "keputusan": 3028,
      "udara": 3029,
      "guru": 3030,
      "##oran": 3031,
      "2010": 3032,
      "wakil": 3033,
      "sik": 3034,
      "organisasi": 3035,
      "##encana": 3036,
      "##ses": 3037,
      "berarti": 3038,
      "##emuan": 3039,
      "eropa": 3040,
      "##ɢ": 3041,
      "militer": 3042,
      "tug": 3043,
      "klub": 3044,
      "kerus": 3045,
      "bo": 3046,
      "##iaya": 3047,
      "##umen": 3048,
      "lingkungan": 3049,
      "abd": 3050,
      "##isah": 3051,
      "merasa": 3052,
      "##ahari": 3053,
      "lahir": 3054,
      "##asikan": 3055,
      "persen": 3056,
      "ro": 3057,
      "##tuh": 3058,
      "##irikan": 3059,
      "##iz": 3060,
      "media": 3061,
      "##ukul": 3062,
      "meski": 3063,
      "dewan": 3064,
      "##uju": 3065,
      "hampir": 3066,
      "yakni": 3067,
      "##¤": 3068,
      "mudah": 3069,
      "##amat": 3070,
      "##atus": 3071,
      "ditemukan": 3072,
      "new": 3073,
      "pop": 3074,
      "op": 3075,
      "##ｄ": 3076,
      "##ｌ": 3077,
      "##oni": 3078,
      "malaysia": 3079,
      "##ko": 3080,
      "contoh": 3081,
      "ilmiah": 3082,
      "berlangsung": 3083,
      "##angkap": 3084,
      "##acam": 3085,
      "diterbitkan": 3086,
      "industr": 3087,
      "##ebr": 3088,
      "keseh": 3089,
      "gag": 3090,
      "mengel": 3091,
      "pertandingan": 3092,
      "int": 3093,
      "##aka": 3094,
      "ayah": 3095,
      "##akai": 3096,
      "2006": 3097,
      "umumnya": 3098,
      "ruang": 3099,
      "menuju": 3100,
      "##oto": 3101,
      "##ef": 3102,
      "tradisi": 3103,
      "banj": 3104,
      "##angkah": 3105,
      "##erta": 3106,
      "##𝟑": 3107,
      "pemimpin": 3108,
      "belajar": 3109,
      "##abu": 3110,
      "mantan": 3111,
      "kekuatan": 3112,
      "bola": 3113,
      "membantu": 3114,
      "jum": 3115,
      "##amanan": 3116,
      "umat": 3117,
      "##ไ": 3118,
      "22": 3119,
      "mu": 3120,
      "pang": 3121,
      "##𝙰": 3122,
      "industri": 3123,
      "kebij": 3124,
      "##ongan": 3125,
      "keadaan": 3126,
      "##𝑦": 3127,
      "##ilis": 3128,
      "seni": 3129,
      "bantuan": 3130,
      "rah": 3131,
      "jangan": 3132,
      "ev": 3133,
      "say": 3134,
      "##ton": 3135,
      "tni": 3136,
      "gerakan": 3137,
      "sebanyak": 3138,
      "milik": 3139,
      "##ach": 3140,
      "##ca": 3141,
      "##edi": 3142,
      "pa": 3143,
      "kesehatan": 3144,
      "data": 3145,
      "##gabung": 3146,
      "unit": 3147,
      "##atat": 3148,
      "##anggung": 3149,
      "24": 3150,
      "tugas": 3151,
      "##urn": 3152,
      "del": 3153,
      "kemen": 3154,
      "##alahan": 3155,
      "##ack": 3156,
      "segala": 3157,
      "##ikiran": 3158,
      "bek": 3159,
      "berubah": 3160,
      "alat": 3161,
      "kamu": 3162,
      "ge": 3163,
      "##anyakan": 3164,
      "jalur": 3165,
      "gl": 3166,
      "agung": 3167,
      "##elar": 3168,
      "##ark": 3169,
      "menemukan": 3170,
      "aksi": 3171,
      "##ord": 3172,
      "keras": 3173,
      "##◝": 3174,
      "##nyata": 3175,
      "matahari": 3176,
      "ki": 3177,
      "ternyata": 3178,
      "##asilkan": 3179,
      "kuat": 3180,
      "##antung": 3181,
      "##ambang": 3182,
      "gedung": 3183,
      "##eo": 3184,
      "##abila": 3185,
      "nas": 3186,
      "ali": 3187,
      "penulis": 3188,
      "##inggu": 3189,
      "diberikan": 3190,
      "##ve": 3191,
      "23": 3192,
      "##erita": 3193,
      "ayat": 3194,
      "saud": 3195,
      "##por": 3196,
      "lokasi": 3197,
      "mon": 3198,
      "menyebut": 3199,
      "##𝙛": 3200,
      "##ajak": 3201,
      "##aksanakan": 3202,
      "##atas": 3203,
      "car": 3204,
      "##aji": 3205,
      "##𝐯": 3206,
      "stu": 3207,
      "##isian": 3208,
      "suku": 3209,
      "##gaw": 3210,
      "mati": 3211,
      "##adar": 3212,
      "apabila": 3213,
      "195": 3214,
      "##uasaan": 3215,
      "##arga": 3216,
      "alasan": 3217,
      "cepat": 3218,
      "##tugas": 3219,
      "rat": 3220,
      "buah": 3221,
      "gamb": 3222,
      "disi": 3223,
      "tand": 3224,
      "sas": 3225,
      "##adakan": 3226,
      "menulis": 3227,
      "tulis": 3228,
      "juli": 3229,
      "dibuat": 3230,
      "menit": 3231,
      "##pl": 3232,
      "##ess": 3233,
      "mag": 3234,
      "##𝙂": 3235,
      "sumat": 3236,
      "may": 3237,
      "##ajah": 3238,
      "##𝗪": 3239,
      "juni": 3240,
      "tertentu": 3241,
      "##adian": 3242,
      "beliau": 3243,
      "teman": 3244,
      "minyak": 3245,
      "##✧": 3246,
      "bertem": 3247,
      "##uasa": 3248,
      "##irim": 3249,
      "melawan": 3250,
      "##kah": 3251,
      "tentu": 3252,
      "upaya": 3253,
      "kebijakan": 3254,
      "januari": 3255,
      "penyakit": 3256,
      "tindakan": 3257,
      "##ᵈ": 3258,
      "tepat": 3259,
      "##th": 3260,
      "eng": 3261,
      "##intang": 3262,
      "##ｔ": 3263,
      "september": 3264,
      "##ｈ": 3265,
      "persi": 3266,
      "mew": 3267,
      "jab": 3268,
      "kun": 3269,
      "##ｐ": 3270,
      "mengikuti": 3271,
      "100": 3272,
      "kerusakan": 3273,
      "bus": 3274,
      "menik": 3275,
      "##⁹": 3276,
      "##ampuan": 3277,
      "##uki": 3278,
      "teknologi": 3279,
      "##bar": 3280,
      "wah": 3281,
      "kalim": 3282,
      "hutan": 3283,
      "##land": 3284,
      "sese": 3285,
      "nomor": 3286,
      "lip": 3287,
      "resmi": 3288,
      "tua": 3289,
      "cerita": 3290,
      "mei": 3291,
      "calon": 3292,
      "##ainkan": 3293,
      "memilih": 3294,
      "##lukan": 3295,
      "daya": 3296,
      "rata": 3297,
      "menarik": 3298,
      "##𝚐": 3299,
      "##ell": 3300,
      "penuh": 3301,
      "##ass": 3302,
      "##endah": 3303,
      "gunung": 3304,
      "laba": 3305,
      "##epas": 3306,
      "punya": 3307,
      "sol": 3308,
      "rel": 3309,
      "##𝐆": 3310,
      "desember": 3311,
      "meninggal": 3312,
      "peristiwa": 3313,
      "berat": 3314,
      "##tuhan": 3315,
      "ya": 3316,
      "pendek": 3317,
      "sepanjang": 3318,
      "##ibatkan": 3319,
      "agustus": 3320,
      "##su": 3321,
      "april": 3322,
      "dah": 3323,
      "##ore": 3324,
      "##arakan": 3325,
      "cat": 3326,
      "##ingkatkan": 3327,
      "##ｋ": 3328,
      "##te": 3329,
      "##bangan": 3330,
      "bangunan": 3331,
      "##𝕣": 3332,
      "terbaik": 3333,
      "mengk": 3334,
      "seseorang": 3335,
      "batang": 3336,
      "menjalan": 3337,
      "pemilihan": 3338,
      "kepol": 3339,
      "hit": 3340,
      "##ullah": 3341,
      "raya": 3342,
      "##alik": 3343,
      "muhammad": 3344,
      "oktober": 3345,
      "##ill": 3346,
      "kp": 3347,
      "##ity": 3348,
      "##mp": 3349,
      "prancis": 3350,
      "plan": 3351,
      "inf": 3352,
      "er": 3353,
      "ikut": 3354,
      "yah": 3355,
      "krist": 3356,
      "dimana": 3357,
      "situ": 3358,
      "kepolisian": 3359,
      "uk": 3360,
      "ed": 3361,
      "perkembangan": 3362,
      "2004": 3363,
      "##𝕕": 3364,
      "km": 3365,
      "langkah": 3366,
      "perjalan": 3367,
      "ph": 3368,
      "pertemuan": 3369,
      "co": 3370,
      "aktiv": 3371,
      "pukul": 3372,
      "fl": 3373,
      "##aih": 3374,
      "berjalan": 3375,
      "##urus": 3376,
      "##gus": 3377,
      "kemampuan": 3378,
      "##awi": 3379,
      "maret": 3380,
      "menolak": 3381,
      "##jo": 3382,
      "itulah": 3383,
      "##uarkan": 3384,
      "##ebar": 3385,
      "##son": 3386,
      "bali": 3387,
      "##embangkan": 3388,
      "arab": 3389,
      "ahli": 3390,
      "kul": 3391,
      "gubern": 3392,
      "walaupun": 3393,
      "her": 3394,
      "stasi": 3395,
      "diketahui": 3396,
      "kereta": 3397,
      "##anto": 3398,
      "##empatan": 3399,
      "zaman": 3400,
      "jender": 3401,
      "27": 3402,
      "##ᴺ": 3403,
      "gubernur": 3404,
      "##udul": 3405,
      "sisi": 3406,
      "##arat": 3407,
      "terlalu": 3408,
      "form": 3409,
      "##ampaikan": 3410,
      "es": 3411,
      "##ekan": 3412,
      "kesel": 3413,
      "##ᴴ": 3414,
      "enam": 3415,
      "serangan": 3416,
      "pasti": 3417,
      "##𝕌": 3418,
      "##ich": 3419,
      "##ahal": 3420,
      "por": 3421,
      "kekuasaan": 3422,
      "##tra": 3423,
      "menging": 3424,
      "jenderal": 3425,
      "ide": 3426,
      "##ajib": 3427,
      "26": 3428,
      "stasiun": 3429,
      "##ce": 3430,
      "setempat": 3431,
      "##wak": 3432,
      "november": 3433,
      "terlihat": 3434,
      "##inal": 3435,
      "##𝔻": 3436,
      "popul": 3437,
      "##𝒽": 3438,
      "inv": 3439,
      "##inasi": 3440,
      "##ainya": 3441,
      "arah": 3442,
      "terkait": 3443,
      "##𝗷": 3444,
      "sikap": 3445,
      "berkata": 3446,
      "2005": 3447,
      "##oa": 3448,
      "joh": 3449,
      "pot": 3450,
      "sus": 3451,
      "28": 3452,
      "##ftar": 3453,
      "nabi": 3454,
      "maupun": 3455,
      "turun": 3456,
      "keper": 3457,
      "vi": 3458,
      "pasal": 3459,
      "sepak": 3460,
      "dinas": 3461,
      "operasi": 3462,
      "pimpinan": 3463,
      "kemungkinan": 3464,
      "sun": 3465,
      "##ez": 3466,
      "##uskan": 3467,
      "##atangan": 3468,
      "rev": 3469,
      "##angnya": 3470,
      "ung": 3471,
      "##all": 3472,
      "##uman": 3473,
      "##ens": 3474,
      "##𝘧": 3475,
      "siapa": 3476,
      "##˖": 3477,
      "50": 3478,
      "##꒰": 3479,
      "##osa": 3480,
      "##uktur": 3481,
      "padahal": 3482,
      "##ulkan": 3483,
      "rencana": 3484,
      "india": 3485,
      "##etahuan": 3486,
      "peri": 3487,
      "lem": 3488,
      "republik": 3489,
      "##ou": 3490,
      "##tab": 3491,
      "keamanan": 3492,
      "naik": 3493,
      "##ektif": 3494,
      "asia": 3495,
      "massa": 3496,
      "manaj": 3497,
      "perjalanan": 3498,
      "##pati": 3499,
      "membangun": 3500,
      "##unuh": 3501,
      "##tual": 3502,
      "##ainan": 3503,
      "##jid": 3504,
      "kebutuhan": 3505,
      "produksi": 3506,
      "konf": 3507,
      "pekerj": 3508,
      "liga": 3509,
      "tenaga": 3510,
      "mand": 3511,
      "##꒱": 3512,
      "lew": 3513,
      "soal": 3514,
      "terkenal": 3515,
      "mengetahui": 3516,
      "berupa": 3517,
      "##akkan": 3518,
      "berusaha": 3519,
      "gar": 3520,
      "##𝗞": 3521,
      "berkembang": 3522,
      "hi": 3523,
      "berita": 3524,
      "##inc": 3525,
      "##okok": 3526,
      "komisi": 3527,
      "penelitian": 3528,
      "tot": 3529,
      "prot": 3530,
      "##po": 3531,
      "prib": 3532,
      "pap": 3533,
      "meninggalkan": 3534,
      "##ate": 3535,
      "##usun": 3536,
      "isra": 3537,
      "##iptakan": 3538,
      "kaki": 3539,
      "kitab": 3540,
      "ialah": 3541,
      "sana": 3542,
      "pekerjaan": 3543,
      "merah": 3544,
      "##𝟓": 3545,
      "##aria": 3546,
      "dibanding": 3547,
      "##atis": 3548,
      "studi": 3549,
      "##aturan": 3550,
      "kont": 3551,
      "meningkatkan": 3552,
      "##men": 3553,
      "minggu": 3554,
      "tar": 3555,
      "##buatan": 3556,
      "##sur": 3557,
      "##╮": 3558,
      "##ona": 3559,
      "##ˋ": 3560,
      "##ujud": 3561,
      "bul": 3562,
      "hab": 3563,
      "perg": 3564,
      "kalangan": 3565,
      "pengetahuan": 3566,
      "bisnis": 3567,
      "kristen": 3568,
      "##arian": 3569,
      "##enang": 3570,
      "bintang": 3571,
      "pro": 3572,
      "##𝕔": 3573,
      "duk": 3574,
      "ay": 3575,
      "bandung": 3576,
      "der": 3577,
      "semb": 3578,
      "san": 3579,
      "selanjutnya": 3580,
      "##𝕠": 3581,
      "##lan": 3582,
      "katanya": 3583,
      "mili": 3584,
      "kejadian": 3585,
      "log": 3586,
      "##qu": 3587,
      "siap": 3588,
      "pej": 3589,
      "##otor": 3590,
      "amb": 3591,
      "biaya": 3592,
      "meter": 3593,
      "dulu": 3594,
      "jaringan": 3595,
      "##ade": 3596,
      "##sis": 3597,
      "membentuk": 3598,
      "##ge": 3599,
      "wib": 3600,
      "senin": 3601,
      "publik": 3602,
      "hend": 3603,
      "##one": 3604,
      "darah": 3605,
      "##ulang": 3606,
      "##erd": 3607,
      "##usnya": 3608,
      "israel": 3609,
      "liputan": 3610,
      "tanda": 3611,
      "##artemen": 3612,
      "##𝖑": 3613,
      "##iks": 3614,
      "belakang": 3615,
      "senjata": 3616,
      "kematian": 3617,
      "konsep": 3618,
      "mark": 3619,
      "kesempatan": 3620,
      "##ungkan": 3621,
      "angkatan": 3622,
      "pengg": 3623,
      "##oro": 3624,
      "penggunaan": 3625,
      "rabu": 3626,
      "istilah": 3627,
      "##𝖚": 3628,
      "##arap": 3629,
      "pekan": 3630,
      "peran": 3631,
      "rendah": 3632,
      "##orkan": 3633,
      "tengg": 3634,
      "tip": 3635,
      "##erahkan": 3636,
      "putih": 3637,
      "kak": 3638,
      "sumatra": 3639,
      "##iah": 3640,
      "perp": 3641,
      "##untut": 3642,
      "pagi": 3643,
      "##irkan": 3644,
      "bir": 3645,
      "prak": 3646,
      "dimulai": 3647,
      "februari": 3648,
      "##abaya": 3649,
      "silam": 3650,
      "bebas": 3651,
      "##evisi": 3652,
      "##ust": 3653,
      "##etapkan": 3654,
      "##tion": 3655,
      "sulit": 3656,
      "wis": 3657,
      "asp": 3658,
      "tewas": 3659,
      "##ast": 3660,
      "##amu": 3661,
      "tersangka": 3662,
      "cinta": 3663,
      "##unggu": 3664,
      "##𝓸": 3665,
      "##ilangan": 3666,
      "##entingan": 3667,
      "gam": 3668,
      "mendukung": 3669,
      "et": 3670,
      "##inggi": 3671,
      "kari": 3672,
      "mendatang": 3673,
      "gelar": 3674,
      "ikan": 3675,
      "##mal": 3676,
      "terbesar": 3677,
      "##ayan": 3678,
      "menyer": 3679,
      "bukti": 3680,
      "disel": 3681,
      "tentara": 3682,
      "sebagaimana": 3683,
      "29": 3684,
      "##amin": 3685,
      "go": 3686,
      "##orong": 3687,
      "##tic": 3688,
      "surabaya": 3689,
      "bes": 3690,
      "yog": 3691,
      "kamis": 3692,
      "pergi": 3693,
      "##𝓶": 3694,
      "menghasilkan": 3695,
      "##estasi": 3696,
      "hid": 3697,
      "##uma": 3698,
      "##uter": 3699,
      "den": 3700,
      "##uf": 3701,
      "##▏": 3702,
      "tamb": 3703,
      "kil": 3704,
      "antaranya": 3705,
      "leg": 3706,
      "jo": 3707,
      "##ｕ": 3708,
      "00": 3709,
      "##ork": 3710,
      "##ty": 3711,
      "##ｇ": 3712,
      "##egang": 3713,
      "##ｓ": 3714,
      "pertanian": 3715,
      "diberi": 3716,
      "pantai": 3717,
      "##┅": 3718,
      "##inkan": 3719,
      "inilah": 3720,
      "##atnya": 3721,
      "siswa": 3722,
      "menjelaskan": 3723,
      "ni": 3724,
      "hot": 3725,
      "banjir": 3726,
      "##elang": 3727,
      "sim": 3728,
      "mor": 3729,
      "##┉": 3730,
      "justru": 3731,
      "miliar": 3732,
      "satunya": 3733,
      "rus": 3734,
      "italia": 3735,
      "##okan": 3736,
      "ex": 3737,
      "##asaan": 3738,
      "rasul": 3739,
      "usia": 3740,
      "##𝘫": 3741,
      "mesin": 3742,
      "menghadapi": 3743,
      "ditulis": 3744,
      "daftar": 3745,
      "lewat": 3746,
      "proy": 3747,
      "##icara": 3748,
      "sekaligus": 3749,
      "##tup": 3750,
      "saudara": 3751,
      "##agang": 3752,
      "pengadilan": 3753,
      "##┘": 3754,
      "ratusan": 3755,
      "##agangan": 3756,
      "ep": 3757,
      "putra": 3758,
      "anti": 3759,
      "jabatan": 3760,
      "tab": 3761,
      "##anjian": 3762,
      "bertemu": 3763,
      "selasa": 3764,
      "kepentingan": 3765,
      "memperoleh": 3766,
      "pah": 3767,
      "##ˎ": 3768,
      "huj": 3769,
      "##esaikan": 3770,
      "##umpang": 3771,
      "pelatih": 3772,
      "masjid": 3773,
      "kasih": 3774,
      "jumat": 3775,
      "pasangan": 3776,
      "##fikasi": 3777,
      "perjanjian": 3778,
      "asing": 3779,
      "##kar": 3780,
      "##𝑬": 3781,
      "grup": 3782,
      "##alisasi": 3783,
      "istri": 3784,
      "sifat": 3785,
      "korup": 3786,
      "mempr": 3787,
      "pejabat": 3788,
      "kampung": 3789,
      "sebelah": 3790,
      "lat": 3791,
      "##angat": 3792,
      "##ingkatan": 3793,
      "laporan": 3794,
      "##ron": 3795,
      "televisi": 3796,
      "##uang": 3797,
      "yg": 3798,
      "##intah": 3799,
      "##mat": 3800,
      "fi": 3801,
      "##art": 3802,
      "##yo": 3803,
      "ujar": 3804,
      "bergabung": 3805,
      "##uangan": 3806,
      "##entar": 3807,
      "sud": 3808,
      "saling": 3809,
      "##ergi": 3810,
      "by": 3811,
      "##idik": 3812,
      "vid": 3813,
      "sini": 3814,
      "buat": 3815,
      "pengharga": 3816,
      "cl": 3817,
      "az": 3818,
      "kew": 3819,
      "pasi": 3820,
      "korea": 3821,
      "##erasi": 3822,
      "##ukkan": 3823,
      "##urun": 3824,
      "pria": 3825,
      "yes": 3826,
      "##𝑹": 3827,
      "40": 3828,
      "##aruh": 3829,
      "periode": 3830,
      "diduga": 3831,
      "kemenangan": 3832,
      "penghargaan": 3833,
      "##aksud": 3834,
      "kendaraan": 3835,
      "fungsi": 3836,
      "bet": 3837,
      "##engkap": 3838,
      "31": 3839,
      "pec": 3840,
      "##ie": 3841,
      "keuangan": 3842,
      "2002": 3843,
      "##ipta": 3844,
      "petugas": 3845,
      "proyek": 3846,
      "teori": 3847,
      "##av": 3848,
      "bas": 3849,
      "departemen": 3850,
      "kadang": 3851,
      "##ite": 3852,
      "babak": 3853,
      "strat": 3854,
      "##ham": 3855,
      "he": 3856,
      "##＾": 3857,
      "##atasan": 3858,
      "pernyataan": 3859,
      "keduanya": 3860,
      "##edakan": 3861,
      "2000": 3862,
      "australia": 3863,
      "lel": 3864,
      "##ace": 3865,
      "gad": 3866,
      "##ba": 3867,
      "panas": 3868,
      "versi": 3869,
      "##atikan": 3870,
      "##anjutkan": 3871,
      "##ayar": 3872,
      "##ahanan": 3873,
      "mengak": 3874,
      "##itis": 3875,
      "tulisan": 3876,
      "kos": 3877,
      "berlaku": 3878,
      "non": 3879,
      "modern": 3880,
      "##ｉ": 3881,
      "percaya": 3882,
      "sulawesi": 3883,
      "pengembangan": 3884,
      "##atuan": 3885,
      "##etik": 3886,
      "demi": 3887,
      "pesan": 3888,
      "warna": 3889,
      "unsur": 3890,
      "pemil": 3891,
      "##rik": 3892,
      "meraih": 3893,
      "gambar": 3894,
      "con": 3895,
      "##ret": 3896,
      "##ѕ": 3897,
      "##enti": 3898,
      "##◡": 3899,
      "radi": 3900,
      "materi": 3901,
      "sch": 3902,
      "dikatakan": 3903,
      "##utup": 3904,
      "##wi": 3905,
      "tadi": 3906,
      "situs": 3907,
      "kebanyakan": 3908,
      "siang": 3909,
      "aktif": 3910,
      "##yakarta": 3911,
      "##juangan": 3912,
      "apal": 3913,
      "dirilis": 3914,
      "lapangan": 3915,
      "faktor": 3916,
      "post": 3917,
      "tampil": 3918,
      "##akter": 3919,
      "##ex": 3920,
      "tercatat": 3921,
      "medan": 3922,
      "dibangun": 3923,
      "sabtu": 3924,
      "rem": 3925,
      "##oph": 3926,
      "apalagi": 3927,
      "div": 3928,
      "##iring": 3929,
      "##𝙸": 3930,
      "jaya": 3931,
      "bunga": 3932,
      "ditu": 3933,
      "##𝟮": 3934,
      "##❛": 3935,
      "2003": 3936,
      "dokter": 3937,
      "bap": 3938,
      "##akaan": 3939,
      "##⊙": 3940,
      "benda": 3941,
      "dom": 3942,
      "was": 3943,
      "rusia": 3944,
      "tujuh": 3945,
      "##adikan": 3946,
      "##ampak": 3947,
      "yogyakarta": 3948,
      "berusia": 3949,
      "gi": 3950,
      "burung": 3951,
      "pengel": 3952,
      "abu": 3953,
      "peserta": 3954,
      "saham": 3955,
      "model": 3956,
      "##arapkan": 3957,
      "##erak": 3958,
      "mut": 3959,
      "pribadi": 3960,
      "perjuangan": 3961,
      "perdagangan": 3962,
      "##acara": 3963,
      "##empat": 3964,
      "listrik": 3965,
      "##ᆾ": 3966,
      "membuka": 3967,
      "##ock": 3968,
      "sambil": 3969,
      "##amaan": 3970,
      "##ganya": 3971,
      "##𝟕": 3972,
      "##ᒪ": 3973,
      "##ᖇ": 3974,
      "terh": 3975,
      "rapat": 3976,
      "##ᑎ": 3977,
      "du": 3978,
      "##uku": 3979,
      "##iksa": 3980,
      "terlibat": 3981,
      "dikel": 3982,
      "lihat": 3983,
      "##ᗩ": 3984,
      "hujan": 3985,
      "##ht": 3986,
      "##indah": 3987,
      "##ajukan": 3988,
      "peraturan": 3989,
      "##arto": 3990,
      "terbentuk": 3991,
      "##ᖴ": 3992,
      "petani": 3993,
      "gagal": 3994,
      "pertanya": 3995,
      "##amkan": 3996,
      "##andung": 3997,
      "##🆁": 3998,
      "temb": 3999,
      "mempert": 4000,
      "berakhir": 4001,
      "pemilu": 4002,
      "##𝕡": 4003,
      "total": 4004,
      "lahan": 4005,
      "pandangan": 4006,
      "hind": 4007,
      "glob": 4008,
      "melayu": 4009,
      "##emi": 4010,
      "##alahkan": 4011,
      "stand": 4012,
      "memutuskan": 4013,
      "##edia": 4014,
      "kemar": 4015,
      "##aksanaan": 4016,
      "##aporkan": 4017,
      "karakter": 4018,
      "rup": 4019,
      "##ema": 4020,
      "titik": 4021,
      "aman": 4022,
      "##alikan": 4023,
      "kim": 4024,
      "##ampung": 4025,
      "##ahami": 4026,
      "korupsi": 4027,
      "##kin": 4028,
      "teknik": 4029,
      "terbuka": 4030,
      "video": 4031,
      "top": 4032,
      "angka": 4033,
      "##olongan": 4034,
      "##dayaan": 4035,
      "kisah": 4036,
      "pohon": 4037,
      "menya": 4038,
      "imam": 4039,
      "khususnya": 4040,
      "##bah": 4041,
      "cina": 4042,
      "awalnya": 4043,
      "sektor": 4044,
      "##tt": 4045,
      "gas": 4046,
      "##adah": 4047,
      "mic": 4048,
      "##urahan": 4049,
      "berc": 4050,
      "memenuhi": 4051,
      "ulang": 4052,
      "meneg": 4053,
      "##atasi": 4054,
      "olah": 4055,
      "jatuh": 4056,
      "mengur": 4057,
      "lokal": 4058,
      "pendapat": 4059,
      "ta": 4060,
      "menikah": 4061,
      "pu": 4062,
      "##olik": 4063,
      "bom": 4064,
      "##■": 4065,
      "##unjung": 4066,
      "obat": 4067,
      "meningkat": 4068,
      "kesul": 4069,
      "diambil": 4070,
      "putri": 4071,
      "tampak": 4072,
      "ari": 4073,
      "##hl": 4074,
      "##by": 4075,
      "##ne": 4076,
      "##uddin": 4077,
      "keg": 4078,
      "##pp": 4079,
      "pk": 4080,
      "mencoba": 4081,
      "perhatian": 4082,
      "yud": 4083,
      "##anji": 4084,
      "berf": 4085,
      "pil": 4086,
      "yesus": 4087,
      "buruk": 4088,
      "##ulus": 4089,
      "permainan": 4090,
      "bant": 4091,
      "kalimantan": 4092,
      "didirikan": 4093,
      "ajaran": 4094,
      "polri": 4095,
      "bersifat": 4096,
      "##zi": 4097,
      "##ten": 4098,
      "dipr": 4099,
      "##entang": 4100,
      "##oduksi": 4101,
      "pintu": 4102,
      "dijadikan": 4103,
      "##ʙ": 4104,
      "##yi": 4105,
      "##➛": 4106,
      "seles": 4107,
      "sidang": 4108,
      "##antas": 4109,
      "dahulu": 4110,
      "##ase": 4111,
      "hadir": 4112,
      "dur": 4113,
      "192": 4114,
      "##ver": 4115,
      "##omo": 4116,
      "batas": 4117,
      "##🤌": 4118,
      "pelangg": 4119,
      "bakal": 4120,
      "berisi": 4121,
      "membaca": 4122,
      "##ilkan": 4123,
      "penumpang": 4124,
      "##awang": 4125,
      "##zah": 4126,
      "pur": 4127,
      "##umkan": 4128,
      "energi": 4129,
      "yahudi": 4130,
      "berdiri": 4131,
      "##insip": 4132,
      "##jek": 4133,
      "berharap": 4134,
      "pd": 4135,
      "artinya": 4136,
      "##her": 4137,
      "##┏": 4138,
      "taman": 4139,
      "piala": 4140,
      "##┛": 4141,
      "##uat": 4142,
      "internet": 4143,
      "##┃": 4144,
      "menger": 4145,
      "pertanyaan": 4146,
      "##onis": 4147,
      "##tern": 4148,
      "##za": 4149,
      "##ayakan": 4150,
      "##oritas": 4151,
      "##uali": 4152,
      "pilihan": 4153,
      "##⁴": 4154,
      "hitam": 4155,
      "keker": 4156,
      "keseluruhan": 4157,
      "demokrasi": 4158,
      "kira": 4159,
      "##antara": 4160,
      "konflik": 4161,
      "antar": 4162,
      "komputer": 4163,
      "permukaan": 4164,
      "##∩": 4165,
      "##anyi": 4166,
      "pengalaman": 4167,
      "dukungan": 4168,
      "##har": 4169,
      "kelurahan": 4170,
      "##onton": 4171,
      "syar": 4172,
      "perso": 4173,
      "prinsip": 4174,
      "##ampilan": 4175,
      "kong": 4176,
      "cab": 4177,
      "##amai": 4178,
      "diterima": 4179,
      "##aim": 4180,
      "##uruan": 4181,
      "##agam": 4182,
      "pemuda": 4183,
      "mengapa": 4184,
      "turut": 4185,
      "sip": 4186,
      "persoalan": 4187,
      "sultan": 4188,
      "catatan": 4189,
      "##ji": 4190,
      "pekerja": 4191,
      "gaya": 4192,
      "saw": 4193,
      "##𝐉": 4194,
      "nus": 4195,
      "mengeluarkan": 4196,
      "suci": 4197,
      "hakim": 4198,
      "pemilik": 4199,
      "pid": 4200,
      "nanti": 4201,
      "status": 4202,
      "gemp": 4203,
      "balik": 4204,
      "##ran": 4205,
      "asi": 4206,
      "##bi": 4207,
      "aktivitas": 4208,
      "hat": 4209,
      "john": 4210,
      "##ora": 4211,
      "melip": 4212,
      "##intas": 4213,
      "500": 4214,
      "kepad": 4215,
      "##ihan": 4216,
      "##˗": 4217,
      "##anyol": 4218,
      "cor": 4219,
      "gus": 4220,
      "kerana": 4221,
      "alk": 4222,
      "ha": 4223,
      "memulai": 4224,
      "teror": 4225,
      "perbedaan": 4226,
      "##ongkok": 4227,
      "situasi": 4228,
      "##ambat": 4229,
      "puluhan": 4230,
      "buruh": 4231,
      "##enaran": 4232,
      "murid": 4233,
      "dat": 4234,
      "##ｊ": 4235,
      "istana": 4236,
      "##udukan": 4237,
      "##oli": 4238,
      "##ational": 4239,
      "komunikasi": 4240,
      "##anjung": 4241,
      "2011": 4242,
      "##ith": 4243,
      "sehari": 4244,
      "kese": 4245,
      "tanaman": 4246,
      "nur": 4247,
      "berper": 4248,
      "tri": 4249,
      "bup": 4250,
      "##istik": 4251,
      "tangga": 4252,
      "dial": 4253,
      "##jen": 4254,
      "sd": 4255,
      "profesi": 4256,
      "menurun": 4257,
      "selesai": 4258,
      "##❁": 4259,
      "direktur": 4260,
      "cr": 4261,
      "menciptakan": 4262,
      "tradisional": 4263,
      "malah": 4264,
      "##𝖍": 4265,
      "pembel": 4266,
      "##jah": 4267,
      "##tah": 4268,
      "##nam": 4269,
      "bertahan": 4270,
      "##ei": 4271,
      "##ales": 4272,
      "struktur": 4273,
      "menjaga": 4274,
      "pelaku": 4275,
      "bambang": 4276,
      "##elis": 4277,
      "##faatkan": 4278,
      "meman": 4279,
      "##𝑻": 4280,
      "diperkirakan": 4281,
      "prim": 4282,
      "##𝑮": 4283,
      "macam": 4284,
      "##asakan": 4285,
      "saksi": 4286,
      "2012": 4287,
      "sri": 4288,
      "stadi": 4289,
      "sukses": 4290,
      "##ahankan": 4291,
      "1999": 4292,
      "sir": 4293,
      "##nas": 4294,
      "##adinya": 4295,
      "amat": 4296,
      "kehilangan": 4297,
      "##pan": 4298,
      "motor": 4299,
      "red": 4300,
      "pam": 4301,
      "planet": 4302,
      "dipakai": 4303,
      "norm": 4304,
      "kau": 4305,
      "##amping": 4306,
      "hotel": 4307,
      "##♪": 4308,
      "##ester": 4309,
      "garis": 4310,
      "menjabat": 4311,
      "tari": 4312,
      "comment": 4313,
      "##𝑑": 4314,
      "supaya": 4315,
      "##tis": 4316,
      "dimaksud": 4317,
      "##𝕞": 4318,
      "lanjut": 4319,
      "suh": 4320,
      "##uasai": 4321,
      "##co": 4322,
      "fasil": 4323,
      "tiongkok": 4324,
      "sebalik": 4325,
      "##𝙁": 4326,
      "bakar": 4327,
      "pulang": 4328,
      "##operasi": 4329,
      "mun": 4330,
      "pab": 4331,
      "asli": 4332,
      "menentukan": 4333,
      "isu": 4334,
      "##₊": 4335,
      "sta": 4336,
      "hilang": 4337,
      "bandar": 4338,
      "syari": 4339,
      "##sh": 4340,
      "##airan": 4341,
      "yus": 4342,
      "kot": 4343,
      "##isis": 4344,
      "elektr": 4345,
      "suka": 4346,
      "sesungguhnya": 4347,
      "##ungguh": 4348,
      "sya": 4349,
      "##𝓾": 4350,
      "##𝓬": 4351,
      "##ambarkan": 4352,
      "punc": 4353,
      "##buat": 4354,
      "cap": 4355,
      "kenaikan": 4356,
      "##rid": 4357,
      "##itakan": 4358,
      "bergerak": 4359,
      "mendengar": 4360,
      "tegas": 4361,
      "web": 4362,
      "meliputi": 4363,
      "fir": 4364,
      "##ein": 4365,
      "##ikel": 4366,
      "hew": 4367,
      "##pun": 4368,
      "perdana": 4369,
      "uni": 4370,
      "namanya": 4371,
      "##engaruhi": 4372,
      "dipimpin": 4373,
      "admin": 4374,
      "luka": 4375,
      "kulit": 4376,
      "kontrak": 4377,
      "##𝖐": 4378,
      "anaknya": 4379,
      "pelaksanaan": 4380,
      "roh": 4381,
      "mengembangkan": 4382,
      "##🅽": 4383,
      "spanyol": 4384,
      "berikutnya": 4385,
      "dilihat": 4386,
      "##🅳": 4387,
      "sebaliknya": 4388,
      "##🅸": 4389,
      "dprd": 4390,
      "pemeriksaan": 4391,
      "emas": 4392,
      "sl": 4393,
      "anc": 4394,
      "duduk": 4395,
      "##ee": 4396,
      "menimbulkan": 4397,
      "semuanya": 4398,
      "komunitas": 4399,
      "##urat": 4400,
      "##dak": 4401,
      "disk": 4402,
      "diam": 4403,
      "seng": 4404,
      "##akaran": 4405,
      "##umumkan": 4406,
      "##empuran": 4407,
      "##𝑵": 4408,
      "disebabkan": 4409,
      "afrika": 4410,
      "##𝑳": 4411,
      "##𝘚": 4412,
      "##ahu": 4413,
      "##ebasan": 4414,
      "nasi": 4415,
      "##inginan": 4416,
      "##ekaan": 4417,
      "##eral": 4418,
      "yo": 4419,
      "35": 4420,
      "pertempuran": 4421,
      "##ulasi": 4422,
      "##raf": 4423,
      "##isk": 4424,
      "suami": 4425,
      "##port": 4426,
      "tambahan": 4427,
      "memasuki": 4428,
      "menjadikan": 4429,
      "##𝕝": 4430,
      "##uluh": 4431,
      "kompl": 4432,
      "dibandingkan": 4433,
      "leb": 4434,
      "padang": 4435,
      "##ino": 4436,
      "kecuali": 4437,
      "seder": 4438,
      "tuan": 4439,
      "peningkatan": 4440,
      "reg": 4441,
      "##rasi": 4442,
      "membeli": 4443,
      "pm": 4444,
      "menyerang": 4445,
      "##umsi": 4446,
      "gempa": 4447,
      "bb": 4448,
      "individ": 4449,
      "qur": 4450,
      "aliran": 4451,
      "##ayat": 4452,
      "terpaksa": 4453,
      "kemarin": 4454,
      "yakin": 4455,
      "menunggu": 4456,
      "##asinya": 4457,
      "sehar": 4458,
      "poin": 4459,
      "##𝟒": 4460,
      "keterangan": 4461,
      "##uji": 4462,
      "halaman": 4463,
      "papua": 4464,
      "##ish": 4465,
      "##⊹": 4466,
      "##itasi": 4467,
      "##les": 4468,
      "keturunan": 4469,
      "my": 4470,
      "##uhkan": 4471,
      "##ᐢ": 4472,
      "##𝑯": 4473,
      "dibawa": 4474,
      "tang": 4475,
      "pedagang": 4476,
      "##antik": 4477,
      "pela": 4478,
      "sungguh": 4479,
      "##asia": 4480,
      "jasa": 4481,
      "kebenaran": 4482,
      "##arikan": 4483,
      "jarak": 4484,
      "##entikan": 4485,
      "##✰": 4486,
      "tahap": 4487,
      "camp": 4488,
      "##▿": 4489,
      "kebudayaan": 4490,
      "diharapkan": 4491,
      "ataupun": 4492,
      "kualitas": 4493,
      "seharusnya": 4494,
      "dilaksanakan": 4495,
      "harapan": 4496,
      "##ice": 4497,
      "##istan": 4498,
      "revolusi": 4499,
      "45": 4500,
      "fasilitas": 4501,
      "##intaan": 4502,
      "hewan": 4503,
      "tom": 4504,
      "##akuan": 4505,
      "diperlukan": 4506,
      "dewasa": 4507,
      "##𝖕": 4508,
      "##angkut": 4509,
      "##amah": 4510,
      "##awanan": 4511,
      "##anye": 4512,
      "2014": 4513,
      "makin": 4514,
      "ulama": 4515,
      "mengakui": 4516,
      "##if": 4517,
      "mengirim": 4518,
      "seks": 4519,
      "delapan": 4520,
      "menyebutkan": 4521,
      "##ement": 4522,
      "tenggara": 4523,
      "vir": 4524,
      "mit": 4525,
      "jur": 4526,
      "menang": 4527,
      "fisik": 4528,
      "wartawan": 4529,
      "dol": 4530,
      "2013": 4531,
      "##uth": 4532,
      "berjudul": 4533,
      "##ps": 4534,
      "##゜": 4535,
      "##amakan": 4536,
      "##❥": 4537,
      "kand": 4538,
      "##ografi": 4539,
      "kerj": 4540,
      "##anggil": 4541,
      "adat": 4542,
      "berkaitan": 4543,
      "##ahas": 4544,
      "mendirikan": 4545,
      "pengaruh": 4546,
      "##ᵀ": 4547,
      "mengubah": 4548,
      "metode": 4549,
      "menyelesaikan": 4550,
      "rad": 4551,
      "##amatkan": 4552,
      "##𝑷": 4553,
      "administr": 4554,
      "bangk": 4555,
      "##bo": 4556,
      "pelayanan": 4557,
      "##╲": 4558,
      "##iling": 4559,
      "lin": 4560,
      "keempat": 4561,
      "melaksanakan": 4562,
      "bayi": 4563,
      "mpr": 4564,
      "##uksi": 4565,
      "semarang": 4566,
      "diadakan": 4567,
      "##𝖔": 4568,
      "menganggap": 4569,
      "wajah": 4570,
      "kabar": 4571,
      "##mati": 4572,
      "##epatan": 4573,
      "golongan": 4574,
      "##de": 4575,
      "akad": 4576,
      "menjawab": 4577,
      "lu": 4578,
      "iii": 4579,
      "lang": 4580,
      "menuntut": 4581,
      "bekas": 4582,
      "##𝖏": 4583,
      "pertahanan": 4584,
      "##andi": 4585,
      "##𝖙": 4586,
      "ditemui": 4587,
      "pemikiran": 4588,
      "kekerasan": 4589,
      "positif": 4590,
      "##alang": 4591,
      "##⌣": 4592,
      "sid": 4593,
      "pengan": 4594,
      "artikel": 4595,
      "##esan": 4596,
      "##egah": 4597,
      "##ｍ": 4598,
      "penerbangan": 4599,
      "sejauh": 4600,
      "kenyataan": 4601,
      "pikiran": 4602,
      "##ancam": 4603,
      "##aju": 4604,
      "tv": 4605,
      "isi": 4606,
      "##get": 4607,
      "ton": 4608,
      "pb": 4609,
      "##sik": 4610,
      "abdul": 4611,
      "##ue": 4612,
      "menengah": 4613,
      "##𝐏": 4614,
      "final": 4615,
      "layanan": 4616,
      "peluang": 4617,
      "ayahnya": 4618,
      "##𝘉": 4619,
      "mesir": 4620,
      "##cayaan": 4621,
      "##◇": 4622,
      "tumbuh": 4623,
      "##ane": 4624,
      "##una": 4625,
      "##enggarakan": 4626,
      "oper": 4627,
      "dj": 4628,
      "mari": 4629,
      "60": 4630,
      "indah": 4631,
      "isti": 4632,
      "kelahiran": 4633,
      "radio": 4634,
      "##untungan": 4635,
      "nat": 4636,
      "kemerdekaan": 4637,
      "mengandung": 4638,
      "##ajari": 4639,
      "digelar": 4640,
      "##indak": 4641,
      "do": 4642,
      "manajemen": 4643,
      "pajak": 4644,
      "##rip": 4645,
      "diny": 4646,
      "##arn": 4647,
      "mengan": 4648,
      "katolik": 4649,
      "semangat": 4650,
      "juara": 4651,
      "pasien": 4652,
      "##♤": 4653,
      "fer": 4654,
      "##🆃": 4655,
      "ts": 4656,
      "ho": 4657,
      "potensi": 4658,
      "##ahun": 4659,
      "tiap": 4660,
      "tekan": 4661,
      "dek": 4662,
      "ukuran": 4663,
      "singapura": 4664,
      "uc": 4665,
      "anggaran": 4666,
      "tik": 4667,
      "##┗": 4668,
      "kop": 4669,
      "##ital": 4670,
      "pangeran": 4671,
      "##ombang": 4672,
      "cen": 4673,
      "##iner": 4674,
      "menyus": 4675,
      "luk": 4676,
      "taw": 4677,
      "##𝖉": 4678,
      "standar": 4679,
      "disampaikan": 4680,
      "gal": 4681,
      "##ler": 4682,
      "lengkap": 4683,
      "global": 4684,
      "prop": 4685,
      "bencana": 4686,
      "has": 4687,
      "krisis": 4688,
      "##ley": 4689,
      "pertumbuhan": 4690,
      "megaw": 4691,
      "upacara": 4692,
      "mengadakan": 4693,
      "pelajaran": 4694,
      "pokok": 4695,
      "menjalankan": 4696,
      "wal": 4697,
      "pendukung": 4698,
      "##𝕍": 4699,
      "pengguna": 4700,
      "menilai": 4701,
      "tep": 4702,
      "##oko": 4703,
      "perkara": 4704,
      "bupati": 4705,
      "##anggu": 4706,
      "fakultas": 4707,
      "maju": 4708,
      "##∪": 4709,
      "prod": 4710,
      "##ll": 4711,
      "membutuhkan": 4712,
      "##apatan": 4713,
      "khas": 4714,
      "##⠄": 4715,
      "tidur": 4716,
      "rob": 4717,
      "##epon": 4718,
      "kesi": 4719,
      "memahami": 4720,
      "memimpin": 4721,
      "##jak": 4722,
      "aspek": 4723,
      "foto": 4724,
      "pari": 4725,
      "dita": 4726,
      "karier": 4727,
      "pelabuhan": 4728,
      "terpilih": 4729,
      "##entuan": 4730,
      "##caya": 4731,
      "vol": 4732,
      "##urangan": 4733,
      "takut": 4734,
      "tertinggi": 4735,
      "##adang": 4736,
      "puncak": 4737,
      "melainkan": 4738,
      "##onia": 4739,
      "tol": 4740,
      "ahmad": 4741,
      "##ner": 4742,
      "##ium": 4743,
      "menjalani": 4744,
      "##tek": 4745,
      "misi": 4746,
      "def": 4747,
      "keinginan": 4748,
      "32": 4749,
      "##umpulan": 4750,
      "liv": 4751,
      "merek": 4752,
      "majalah": 4753,
      "van": 4754,
      "fo": 4755,
      "kepercayaan": 4756,
      "pabrik": 4757,
      "##sel": 4758,
      "##awatan": 4759,
      "aturan": 4760,
      "super": 4761,
      "peg": 4762,
      "teks": 4763,
      "dokumen": 4764,
      "engk": 4765,
      "2015": 4766,
      "##▀": 4767,
      "fat": 4768,
      "dihad": 4769,
      "lakukan": 4770,
      "##rat": 4771,
      "##ediakan": 4772,
      "##ukur": 4773,
      "megawati": 4774,
      "karyawan": 4775,
      "sipil": 4776,
      "wh": 4777,
      "ditangkap": 4778,
      "serupa": 4779,
      "sederhana": 4780,
      "##ajian": 4781,
      "memakai": 4782,
      "menyediakan": 4783,
      "sekret": 4784,
      "tun": 4785,
      "uu": 4786,
      "##mar": 4787,
      "##ida": 4788,
      "##fik": 4789,
      "city": 4790,
      "##ⓐ": 4791,
      "melanjutkan": 4792,
      "aparat": 4793,
      "##wah": 4794,
      "kris": 4795,
      "hendak": 4796,
      "sec": 4797,
      "hel": 4798,
      "##ⓟ": 4799,
      "generasi": 4800,
      "miskin": 4801,
      "tata": 4802,
      "komentar": 4803,
      "##bert": 4804,
      "htt": 4805,
      "hukuman": 4806,
      "##yu": 4807,
      "membunuh": 4808,
      "lump": 4809,
      "##ii": 4810,
      "sig": 4811,
      "pola": 4812,
      "guna": 4813,
      "ribuan": 4814,
      "sma": 4815,
      "permintaan": 4816,
      "ba": 4817,
      "##ding": 4818,
      "gab": 4819,
      "##asilan": 4820,
      "memenangkan": 4821,
      "dimiliki": 4822,
      "##tasi": 4823,
      "penger": 4824,
      "##uler": 4825,
      "iz": 4826,
      "##✯": 4827,
      "menambahkan": 4828,
      "ketingg": 4829,
      "modal": 4830,
      "##ck": 4831,
      "peman": 4832,
      "##∘": 4833,
      "##ometer": 4834,
      "##emat": 4835,
      "##☞": 4836,
      "ps": 4837,
      "mempertahankan": 4838,
      "bagus": 4839,
      "##≧": 4840,
      "huru": 4841,
      "##emahan": 4842,
      "##alian": 4843,
      "menjelang": 4844,
      "##awal": 4845,
      "1998": 4846,
      "peter": 4847,
      "roma": 4848,
      "kiri": 4849,
      "##angani": 4850,
      "mik": 4851,
      "majelis": 4852,
      "kuno": 4853,
      "individu": 4854,
      "kepulauan": 4855,
      "cuma": 4856,
      "##ಠ": 4857,
      "distrik": 4858,
      "penyebab": 4859,
      "mengenal": 4860,
      "tekanan": 4861,
      "terbatas": 4862,
      "selamat": 4863,
      "sak": 4864,
      "peringkat": 4865,
      "##tinya": 4866,
      "##age": 4867,
      "##ence": 4868,
      "menutup": 4869,
      "berbicara": 4870,
      "pembentukan": 4871,
      "ciri": 4872,
      "angin": 4873,
      "##ᴗ": 4874,
      "perintah": 4875,
      "dag": 4876,
      "samping": 4877,
      "##aiki": 4878,
      "arg": 4879,
      "##ungkinkan": 4880,
      "##fah": 4881,
      "##eum": 4882,
      "perbuatan": 4883,
      "pengusaha": 4884,
      "ditetapkan": 4885,
      "akibatnya": 4886,
      "sahabat": 4887,
      "##utar": 4888,
      "kuasa": 4889,
      "merd": 4890,
      "penguasa": 4891,
      "memperl": 4892,
      "##ayang": 4893,
      "rasulullah": 4894,
      "diser": 4895,
      "penyanyi": 4896,
      "era": 4897,
      "melibatkan": 4898,
      "ww": 4899,
      "pernik": 4900,
      "mengurangi": 4901,
      "ris": 4902,
      "ros": 4903,
      "hamb": 4904,
      "menyampaikan": 4905,
      "apapun": 4906,
      "bend": 4907,
      "dibentuk": 4908,
      "ketidak": 4909,
      "##edar": 4910,
      "novel": 4911,
      "##ambut": 4912,
      "berhenti": 4913,
      "dewa": 4914,
      "##nu": 4915,
      "bahawa": 4916,
      "kampanye": 4917,
      "ip": 4918,
      "mencer": 4919,
      "http": 4920,
      "his": 4921,
      "efek": 4922,
      "kalah": 4923,
      "##gen": 4924,
      "lawan": 4925,
      "##◞": 4926,
      "keberadaan": 4927,
      "konser": 4928,
      "##𝙱": 4929,
      "##indungi": 4930,
      "blog": 4931,
      "kud": 4932,
      "pegaw": 4933,
      "##warna": 4934,
      "semacam": 4935,
      "lelaki": 4936,
      "menggantikan": 4937,
      "penjualan": 4938,
      "##ebat": 4939,
      "##likasi": 4940,
      "##juk": 4941,
      "kesalahan": 4942,
      "cabang": 4943,
      "gadis": 4944,
      "engkau": 4945,
      "nik": 4946,
      "penjara": 4947,
      "##itung": 4948,
      "##⋆": 4949,
      "urusan": 4950,
      "pindah": 4951,
      "daun": 4952,
      "##◕": 4953,
      "berpend": 4954,
      "##ater": 4955,
      "huruf": 4956,
      "##asana": 4957,
      "koordin": 4958,
      "##𝘔": 4959,
      "hadi": 4960,
      "##elasan": 4961,
      "adik": 4962,
      "arus": 4963,
      "soeh": 4964,
      "ungg": 4965,
      "##ologis": 4966,
      "perasaan": 4967,
      "##etan": 4968,
      "##〓": 4969,
      "bapak": 4970,
      "mac": 4971,
      "##ral": 4972,
      "pelajar": 4973,
      "yudh": 4974,
      "##ovi": 4975,
      "##ld": 4976,
      "rupiah": 4977,
      "malang": 4978,
      "drama": 4979,
      "kanan": 4980,
      "penderita": 4981,
      "##faat": 4982,
      "berpikir": 4983,
      "##engahan": 4984,
      "tuntutan": 4985,
      "gug": 4986,
      "##𝓫": 4987,
      "tanjung": 4988,
      "##ˏ": 4989,
      "semen": 4990,
      "mengakibatkan": 4991,
      "##impi": 4992,
      "##osok": 4993,
      "keuntungan": 4994,
      "berwarna": 4995,
      "##undang": 4996,
      "##◍": 4997,
      "kategori": 4998,
      "penampilan": 4999,
      "##osisi": 5000,
      "perwakilan": 5001,
      "##anggar": 5002,
      "##□": 5003,
      "york": 5004,
      "setengah": 5005,
      "epis": 5006,
      "tungg": 5007,
      "diikuti": 5008,
      "long": 5009,
      "##umb": 5010,
      "2016": 5011,
      "##𝕂": 5012,
      "fakta": 5013,
      "pegawai": 5014,
      "##sinya": 5015,
      "##aru": 5016,
      "##ras": 5017,
      "##pon": 5018,
      "net": 5019,
      "dise": 5020,
      "menegaskan": 5021,
      "klas": 5022,
      "##ekar": 5023,
      "mengingat": 5024,
      "##ven": 5025,
      "mendorong": 5026,
      "kesulitan": 5027,
      "##ts": 5028,
      "memperb": 5029,
      "bon": 5030,
      "ancaman": 5031,
      "eksek": 5032,
      "diperoleh": 5033,
      "sepen": 5034,
      "perangkat": 5035,
      "pertengahan": 5036,
      "darat": 5037,
      "sastra": 5038,
      "##own": 5039,
      "##asama": 5040,
      "usai": 5041,
      "terbang": 5042,
      "pernikahan": 5043,
      "soeharto": 5044,
      "##ean": 5045,
      "##zim": 5046,
      "##oyono": 5047,
      "##┳": 5048,
      "tuk": 5049,
      "latih": 5050,
      "rekan": 5051,
      "os": 5052,
      "iv": 5053,
      "##alin": 5054,
      "wor": 5055,
      "##hatikan": 5056,
      "##𝖒": 5057,
      "anj": 5058,
      "##juang": 5059,
      "##yan": 5060,
      "staf": 5061,
      "land": 5062,
      "menggelar": 5063,
      "hol": 5064,
      "maksud": 5065,
      "##unjungi": 5066,
      "##ilaku": 5067,
      "##𝒹": 5068,
      "##raga": 5069,
      "telepon": 5070,
      "bertanggung": 5071,
      "menand": 5072,
      "##entasi": 5073,
      "sembilan": 5074,
      "haji": 5075,
      "simb": 5076,
      "33": 5077,
      "maluku": 5078,
      "##ᗰ": 5079,
      "##my": 5080,
      "pp": 5081,
      "bib": 5082,
      "##𝕜": 5083,
      "musuh": 5084,
      "united": 5085,
      "lev": 5086,
      "dinilai": 5087,
      "minim": 5088,
      "bogor": 5089,
      "##tal": 5090,
      "ujung": 5091,
      "muk": 5092,
      "kamar": 5093,
      "kalian": 5094,
      "sarana": 5095,
      "##mo": 5096,
      "##tifikasi": 5097,
      "wisata": 5098,
      "val": 5099,
      "##aksaan": 5100,
      "##elih": 5101,
      "##ೕ": 5102,
      "##lemen": 5103,
      "han": 5104,
      "judul": 5105,
      "palest": 5106,
      "yudhoyono": 5107,
      "reformasi": 5108,
      "banten": 5109,
      "##iku": 5110,
      "##isahkan": 5111,
      "##ｂ": 5112,
      "pendapatan": 5113,
      "cur": 5114,
      "berani": 5115,
      "##illa": 5116,
      "##osis": 5117,
      "syarat": 5118,
      "serial": 5119,
      "terlebih": 5120,
      "lam": 5121,
      "##ataan": 5122,
      "tanggung": 5123,
      "##gak": 5124,
      "merdeka": 5125,
      "##ato": 5126,
      "golkar": 5127,
      "##⎯": 5128,
      "jangka": 5129,
      "##omba": 5130,
      "all": 5131,
      "fraksi": 5132,
      "suasana": 5133,
      "1945": 5134,
      "lintas": 5135,
      "nah": 5136,
      "pakaian": 5137,
      "##endam": 5138,
      "##┑": 5139,
      "markas": 5140,
      "bos": 5141,
      "bukit": 5142,
      "##inet": 5143,
      "##ผ": 5144,
      "##ヮ": 5145,
      "kre": 5146,
      "##゛": 5147,
      "##𝟱": 5148,
      "profesional": 5149,
      "80": 5150,
      "lo": 5151,
      "bh": 5152,
      "##ancang": 5153,
      "peral": 5154,
      "lampung": 5155,
      "##ɯ": 5156,
      "membayar": 5157,
      "mirip": 5158,
      "mengin": 5159,
      "##ᶠ": 5160,
      "lant": 5161,
      "kampus": 5162,
      "mi": 5163,
      "gor": 5164,
      "stadion": 5165,
      "strategi": 5166,
      "kilometer": 5167,
      "kaya": 5168,
      "nyata": 5169,
      "terbuk": 5170,
      "london": 5171,
      "##mb": 5172,
      "##𝚄": 5173,
      "bersih": 5174,
      "##orn": 5175,
      "sepuluh": 5176,
      "dinyatakan": 5177,
      "300": 5178,
      "kub": 5179,
      "menguasai": 5180,
      "##𝙽": 5181,
      "kompetisi": 5182,
      "##anja": 5183,
      "##𝑶": 5184,
      "##ewati": 5185,
      "eur": 5186,
      "agak": 5187,
      "tas": 5188,
      "daging": 5189,
      "kartu": 5190,
      "##𝕓": 5191,
      "70": 5192,
      "pembuatan": 5193,
      "dingin": 5194,
      "##umur": 5195,
      "pertamanya": 5196,
      "toko": 5197,
      "mengungkapkan": 5198,
      "remaja": 5199,
      "##𝕾": 5200,
      "terbukti": 5201,
      "memungkinkan": 5202,
      "##◜": 5203,
      "metro": 5204,
      "ver": 5205,
      "##ria": 5206,
      "senang": 5207,
      "populer": 5208,
      "wir": 5209,
      "cir": 5210,
      "sisa": 5211,
      "latihan": 5212,
      "##edit": 5213,
      "menambah": 5214,
      "naskah": 5215,
      "##oman": 5216,
      "bertambah": 5217,
      "terima": 5218,
      "konstitusi": 5219,
      "##꒦": 5220,
      "##ayani": 5221,
      "perguruan": 5222,
      "##✘": 5223,
      "dev": 5224,
      "##🆄": 5225,
      "satuan": 5226,
      "ren": 5227,
      "semula": 5228,
      "bicara": 5229,
      "##assar": 5230,
      "##amaian": 5231,
      "mencegah": 5232,
      "cender": 5233,
      "alias": 5234,
      "bandara": 5235,
      "rusak": 5236,
      "dipilih": 5237,
      "das": 5238,
      "dampak": 5239,
      "diangkat": 5240,
      "comp": 5241,
      "sut": 5242,
      "terjadinya": 5243,
      "kimia": 5244,
      "world": 5245,
      "serius": 5246,
      "mengal": 5247,
      "astr": 5248,
      "##𝒀": 5249,
      "pri": 5250,
      "utamanya": 5251,
      "fes": 5252,
      "##ohan": 5253,
      "efektif": 5254,
      "harta": 5255,
      "dak": 5256,
      "dif": 5257,
      "##kand": 5258,
      "##ˊ": 5259,
      "olahraga": 5260,
      "##pe": 5261,
      "berhubungan": 5262,
      "sebag": 5263,
      "##ph": 5264,
      "kebebasan": 5265,
      "##anjutan": 5266,
      "hong": 5267,
      "mengej": 5268,
      "##indungan": 5269,
      "adi": 5270,
      "yay": 5271,
      "award": 5272,
      "wajib": 5273,
      "##ᇁ": 5274,
      "##fe": 5275,
      "ans": 5276,
      "pembunuhan": 5277,
      "##𝑏": 5278,
      "##unjukan": 5279,
      "##jual": 5280,
      "##umpulkan": 5281,
      "makassar": 5282,
      "pering": 5283,
      "##ahaman": 5284,
      "posted": 5285,
      "dikembangkan": 5286,
      "cita": 5287,
      "divisi": 5288,
      "menjual": 5289,
      "kerap": 5290,
      "kompleks": 5291,
      "mengatur": 5292,
      "susi": 5293,
      "dos": 5294,
      "190": 5295,
      "##irian": 5296,
      "izin": 5297,
      "mekan": 5298,
      "##nah": 5299,
      "lumpur": 5300,
      "ibunya": 5301,
      "##❖": 5302,
      "kok": 5303,
      "kawan": 5304,
      "36": 5305,
      "##line": 5306,
      "taj": 5307,
      "##⅓": 5308,
      "menderita": 5309,
      "memakan": 5310,
      "ga": 5311,
      "kebakaran": 5312,
      "dian": 5313,
      "ketentuan": 5314,
      "penyer": 5315,
      "lemah": 5316,
      "oksi": 5317,
      "menangkap": 5318,
      "wali": 5319,
      "##der": 5320,
      "swasta": 5321,
      "1997": 5322,
      "##ᴹ": 5323,
      "kedatangan": 5324,
      "##enteng": 5325,
      "tor": 5326,
      "##ꈍ": 5327,
      "pecahan": 5328,
      "makna": 5329,
      "bung": 5330,
      "moh": 5331,
      "ramai": 5332,
      "peringatan": 5333,
      "tern": 5334,
      "premi": 5335,
      "objek": 5336,
      "pemas": 5337,
      "##tir": 5338,
      "##ambi": 5339,
      "normal": 5340,
      "disebutkan": 5341,
      "bertanya": 5342,
      "##∇": 5343,
      "##≦": 5344,
      "##❜": 5345,
      "menampilkan": 5346,
      "##okasi": 5347,
      "penyelengg": 5348,
      "##engkapi": 5349,
      "memperk": 5350,
      "##lat": 5351,
      "kpu": 5352,
      "##⅔": 5353,
      "yayasan": 5354,
      "##osiasi": 5355,
      "##atik": 5356,
      "char": 5357,
      "sby": 5358,
      "arti": 5359,
      "lah": 5360,
      "##inj": 5361,
      "##▕": 5362,
      "ratu": 5363,
      "##ros": 5364,
      "gej": 5365,
      "diant": 5366,
      "##isa": 5367,
      "berbentuk": 5368,
      "##▔": 5369,
      "perlindungan": 5370,
      "cahaya": 5371,
      "mendes": 5372,
      "bbm": 5373,
      "##ajuan": 5374,
      "##lin": 5375,
      "##˳": 5376,
      "simp": 5377,
      "dinasti": 5378,
      "kecel": 5379,
      "pon": 5380,
      "spons": 5381,
      "mol": 5382,
      "##ampi": 5383,
      "kursi": 5384,
      "museum": 5385,
      "betul": 5386,
      "psik": 5387,
      "lib": 5388,
      "cenderung": 5389,
      "kejahatan": 5390,
      "naf": 5391,
      "##iss": 5392,
      "maksi": 5393,
      "jemb": 5394,
      "jarang": 5395,
      "kenapa": 5396,
      "##ago": 5397,
      "gelombang": 5398,
      "sekretaris": 5399,
      "segi": 5400,
      "cel": 5401,
      "akbar": 5402,
      "jantung": 5403,
      "1990": 5404,
      "episode": 5405,
      "tersedia": 5406,
      "##lima": 5407,
      "mencakup": 5408,
      "perek": 5409,
      "manajer": 5410,
      "##ﾉ": 5411,
      "end": 5412,
      "kedudukan": 5413,
      "tai": 5414,
      "pendekatan": 5415,
      "##𝙒": 5416,
      "belas": 5417,
      "##agia": 5418,
      "memerlukan": 5419,
      "##inisi": 5420,
      "solo": 5421,
      "nu": 5422,
      "menekan": 5423,
      "parlemen": 5424,
      "milan": 5425,
      "langit": 5426,
      "sehat": 5427,
      "##go": 5428,
      "##ebihan": 5429,
      "dikirim": 5430,
      "sebaik": 5431,
      "kuli": 5432,
      "##via": 5433,
      "##enalkan": 5434,
      "pelanggaran": 5435,
      "##꒳": 5436,
      "kecelakaan": 5437,
      "rs": 5438,
      "menyerahkan": 5439,
      "alex": 5440,
      "hany": 5441,
      "target": 5442,
      "mengalahkan": 5443,
      "palestina": 5444,
      "pac": 5445,
      "2017": 5446,
      "##intai": 5447,
      "##┐": 5448,
      "##ﷻ": 5449,
      "##ost": 5450,
      "##⁺": 5451,
      "geor": 5452,
      "menyad": 5453,
      "menetapkan": 5454,
      "ayam": 5455,
      "##┌": 5456,
      "##ary": 5457,
      "sayang": 5458,
      "kesepakatan": 5459,
      "##ujuk": 5460,
      "memanfaatkan": 5461,
      "dijual": 5462,
      "konv": 5463,
      "ban": 5464,
      "##win": 5465,
      "##ingkan": 5466,
      "##akwa": 5467,
      "mendek": 5468,
      "sebagainya": 5469,
      "##so": 5470,
      "##unci": 5471,
      "smp": 5472,
      "##〒": 5473,
      "menggambarkan": 5474,
      "##ger": 5475,
      "jaksa": 5476,
      "jul": 5477,
      "don": 5478,
      "simbol": 5479,
      "hy": 5480,
      "perilaku": 5481,
      "##𝓀": 5482,
      "iman": 5483,
      "##inda": 5484,
      "nasib": 5485,
      "hijau": 5486,
      "##tival": 5487,
      "sain": 5488,
      "kritik": 5489,
      "kode": 5490,
      "teb": 5491,
      "otak": 5492,
      "mc": 5493,
      "##ania": 5494,
      "puluh": 5495,
      "jah": 5496,
      "##│": 5497,
      "pengungsi": 5498,
      "protes": 5499,
      "##𝙺": 5500,
      "hen": 5501,
      "timbul": 5502,
      "##𝙼": 5503,
      "kabinet": 5504,
      "##ட": 5505,
      "memastikan": 5506,
      "tergantung": 5507,
      "##adu": 5508,
      "festival": 5509,
      "##╾": 5510,
      "gangg": 5511,
      "bertindak": 5512,
      "intel": 5513,
      "ketinggian": 5514,
      "##bon": 5515,
      "artis": 5516,
      "kesen": 5517,
      "david": 5518,
      "##50": 5519,
      "berperan": 5520,
      "ced": 5521,
      "makhluk": 5522,
      "##esu": 5523,
      "panglima": 5524,
      "pangk": 5525,
      "##he": 5526,
      "china": 5527,
      "sepenuhnya": 5528,
      "tunggal": 5529,
      "singkat": 5530,
      "pengurus": 5531,
      "##io": 5532,
      "##sus": 5533,
      "kpk": 5534,
      "##uel": 5535,
      "dibuka": 5536,
      "34": 5537,
      "keluarganya": 5538,
      "main": 5539,
      "altern": 5540,
      "##sih": 5541,
      "##ewa": 5542,
      "tud": 5543,
      "desain": 5544,
      "panc": 5545,
      "berbasis": 5546,
      "##andia": 5547,
      "dki": 5548,
      "##let": 5549,
      "##pen": 5550,
      "mengajukan": 5551,
      "edisi": 5552,
      "##indahkan": 5553,
      "pingg": 5554,
      "##usak": 5555,
      "fin": 5556,
      "mund": 5557,
      "dusun": 5558,
      "permas": 5559,
      "##angsaan": 5560,
      "keadilan": 5561,
      "##umpul": 5562,
      "dimas": 5563,
      "##❐": 5564,
      "sengaja": 5565,
      "reaksi": 5566,
      "##✫": 5567,
      "##ica": 5568,
      "##odi": 5569,
      "sepeda": 5570,
      "##✭": 5571,
      "jus": 5572,
      "comm": 5573,
      "##ene": 5574,
      "sadar": 5575,
      "nel": 5576,
      "populasi": 5577,
      "##intahkan": 5578,
      "##okus": 5579,
      "lepas": 5580,
      "mengangkat": 5581,
      "international": 5582,
      "##✵": 5583,
      "##jana": 5584,
      "saluran": 5585,
      "paus": 5586,
      "##sor": 5587,
      "##fir": 5588,
      "wat": 5589,
      "##antinya": 5590,
      "madrid": 5591,
      "asam": 5592,
      "rangka": 5593,
      "habis": 5594,
      "panitia": 5595,
      "##iarkan": 5596,
      "gangguan": 5597,
      "sukar": 5598,
      "perw": 5599,
      "##put": 5600,
      "penjelasan": 5601,
      "hib": 5602,
      "luc": 5603,
      "damai": 5604,
      "duga": 5605,
      "ahad": 5606,
      "##ᅠ": 5607,
      "##←": 5608,
      "kejaksaan": 5609,
      "riau": 5610,
      "budi": 5611,
      "wid": 5612,
      "##elan": 5613,
      "direk": 5614,
      "hidupnya": 5615,
      "##lis": 5616,
      "kepemimpinan": 5617,
      "##ukai": 5618,
      "##ft": 5619,
      "sop": 5620,
      "dilaporkan": 5621,
      "menyelamatkan": 5622,
      "mengumumkan": 5623,
      "##urit": 5624,
      "##osp": 5625,
      "pemberian": 5626,
      "gagasan": 5627,
      "##ogen": 5628,
      "kalinya": 5629,
      "##ling": 5630,
      "walau": 5631,
      "sudut": 5632,
      "##aksana": 5633,
      "chelsea": 5634,
      "kir": 5635,
      "transport": 5636,
      "dikeluarkan": 5637,
      "##embalikan": 5638,
      "##⊰": 5639,
      "tema": 5640,
      "##↬": 5641,
      "tulang": 5642,
      "inves": 5643,
      "##otong": 5644,
      "##ᴮ": 5645,
      "relatif": 5646,
      "ruangan": 5647,
      "##﷽": 5648,
      "jena": 5649,
      "##✎": 5650,
      "det": 5651,
      "qu": 5652,
      "##wo": 5653,
      "##𝕁": 5654,
      "pemak": 5655,
      "##ihkan": 5656,
      "##onen": 5657,
      "forum": 5658,
      "##✗": 5659,
      "wahid": 5660,
      "tau": 5661,
      "##ƭ": 5662,
      "pbb": 5663,
      "##ker": 5664,
      "marah": 5665,
      "##egara": 5666,
      "real": 5667,
      "aktor": 5668,
      "sekel": 5669,
      "##atangani": 5670,
      "berfungsi": 5671,
      "fit": 5672,
      "didapat": 5673,
      "##engaruh": 5674,
      "##⚈": 5675,
      "off": 5676,
      "pidana": 5677,
      "##🄿": 5678,
      "mengajar": 5679,
      "melewati": 5680,
      "not": 5681,
      "jembatan": 5682,
      "##ke": 5683,
      "##ery": 5684,
      "jenazah": 5685,
      "ibadah": 5686,
      "virus": 5687,
      "##pu": 5688,
      "dalamnya": 5689,
      "dibutuhkan": 5690,
      "perum": 5691,
      "setuju": 5692,
      "fed": 5693,
      "alami": 5694,
      "parah": 5695,
      "##∙": 5696,
      "inj": 5697,
      "##ⓘ": 5698,
      "ujian": 5699,
      "##༶": 5700,
      "akses": 5701,
      "doa": 5702,
      "memegang": 5703,
      "mang": 5704,
      "kapol": 5705,
      "menahan": 5706,
      "##ght": 5707,
      "tertu": 5708,
      "manch": 5709,
      "tam": 5710,
      "harian": 5711,
      "mayoritas": 5712,
      "##ೂ": 5713,
      "##ೃ": 5714,
      "cit": 5715,
      "len": 5716,
      "##adan": 5717,
      "##𝓜": 5718,
      "bp": 5719,
      "##𝑾": 5720,
      "peralatan": 5721,
      "melahirkan": 5722,
      "##angkit": 5723,
      "##kuat": 5724,
      "roy": 5725,
      "menu": 5726,
      "mulut": 5727,
      "kertas": 5728,
      "minta": 5729,
      "mengatasi": 5730,
      "pihaknya": 5731,
      "kewajib": 5732,
      "jawaban": 5733,
      "dosa": 5734,
      "##emar": 5735,
      "##୨": 5736,
      "investasi": 5737,
      "kuliah": 5738,
      "day": 5739,
      "terang": 5740,
      "produs": 5741,
      "far": 5742,
      "tamu": 5743,
      "##ental": 5744,
      "berangkat": 5745,
      "bertugas": 5746,
      "persatuan": 5747,
      "diantaranya": 5748,
      "menyusul": 5749,
      "kecepatan": 5750,
      "keyakinan": 5751,
      "vari": 5752,
      "turki": 5753,
      "90": 5754,
      "alternatif": 5755,
      "##꒷": 5756,
      "berkel": 5757,
      "arm": 5758,
      "terkena": 5759,
      "ditand": 5760,
      "mencetak": 5761,
      "##entangan": 5762,
      "memandang": 5763,
      "##yakini": 5764,
      "##unda": 5765,
      "rahasia": 5766,
      "seringk": 5767,
      "polda": 5768,
      "kekayaan": 5769,
      "lantaran": 5770,
      "diaku": 5771,
      "ass": 5772,
      "##🅷": 5773,
      "maha": 5774,
      "bol": 5775,
      "terasa": 5776,
      "##ﷺ": 5777,
      "##indahan": 5778,
      "##ƴ": 5779,
      "##ℂ": 5780,
      "melaporkan": 5781,
      "praktik": 5782,
      "fa": 5783,
      "istrinya": 5784,
      "seringkali": 5785,
      "##ome": 5786,
      "iran": 5787,
      "banjar": 5788,
      "##╔": 5789,
      "ujarnya": 5790,
      "##𝕫": 5791,
      "bengk": 5792,
      "##𝔽": 5793,
      "tes": 5794,
      "##nes": 5795,
      "bum": 5796,
      "##𝖋": 5797,
      "mula": 5798,
      "##ero": 5799,
      "kehadiran": 5800,
      "##esis": 5801,
      "muka": 5802,
      "na": 5803,
      "menangg": 5804,
      "##jakan": 5805,
      "pras": 5806,
      "##cel": 5807,
      "##☜": 5808,
      "diselenggarakan": 5809,
      "##antah": 5810,
      "can": 5811,
      "lun": 5812,
      "gro": 5813,
      "filipina": 5814,
      "kup": 5815,
      "ringan": 5816,
      "jurusan": 5817,
      "binatang": 5818,
      "37": 5819,
      "##egal": 5820,
      "layak": 5821,
      "##∴": 5822,
      "##ↀ": 5823,
      "menurunkan": 5824,
      "mundur": 5825,
      "##oso": 5826,
      "melindungi": 5827,
      "##pi": 5828,
      "pond": 5829,
      "##ਊ": 5830,
      "lub": 5831,
      "##ilia": 5832,
      "##𝔹": 5833,
      "maria": 5834,
      "pag": 5835,
      "sempurna": 5836,
      "##ೄ": 5837,
      "perbatasan": 5838,
      "tempo": 5839,
      "belakangan": 5840,
      "insi": 5841,
      "praj": 5842,
      "##gn": 5843,
      "lantai": 5844,
      "penonton": 5845,
      "##uncurkan": 5846,
      "menikmati": 5847,
      "mewakili": 5848,
      "##☽": 5849,
      "##↳": 5850,
      "setahun": 5851,
      "let": 5852,
      "merasakan": 5853,
      "raj": 5854,
      "terpisah": 5855,
      "membahas": 5856,
      "##lom": 5857,
      "instr": 5858,
      "kalimat": 5859,
      "##ukuran": 5860,
      "cedera": 5861,
      "permasalahan": 5862,
      "mahkamah": 5863,
      "hasilnya": 5864,
      "bil": 5865,
      "##eman": 5866,
      "##ﾐ": 5867,
      "alih": 5868,
      "puisi": 5869,
      "kunjungan": 5870,
      "##itor": 5871,
      "kepadanya": 5872,
      "timor": 5873,
      "bor": 5874,
      "tentunya": 5875,
      "##𝑱": 5876,
      "##ance": 5877,
      "pembelajaran": 5878,
      "sant": 5879,
      "##onomian": 5880,
      "##╚": 5881,
      "berpendapat": 5882,
      "##◔": 5883,
      "buddha": 5884,
      "38": 5885,
      "beg": 5886,
      "university": 5887,
      "##url": 5888,
      "httpurl": 5889,
      "kendati": 5890,
      "tampaknya": 5891,
      "##uduki": 5892,
      "mud": 5893,
      "pandemi": 5894,
      "dugaan": 5895,
      "##sk": 5896,
      "mempelajari": 5897,
      "tindak": 5898,
      "##ovid": 5899,
      "menyadari": 5900,
      "covid": 5901,
      "kekurangan": 5902,
      "ledakan": 5903,
      "bersa": 5904,
      "psbb": 5905,
      "melayani": 5906,
      "##olos": 5907,
      "regi": 5908,
      "dirawat": 5909,
      "##ial": 5910,
      "cm": 5911,
      "quran": 5912,
      "adapun": 5913,
      "##amina": 5914,
      "##oth": 5915,
      "hanyalah": 5916,
      "##ancar": 5917,
      "##ugian": 5918,
      "bersamaan": 5919,
      "minum": 5920,
      "##bk": 5921,
      "ditentukan": 5922,
      "tionghoa": 5923,
      "utbk": 5924,
      "seper": 5925,
      "brasil": 5926,
      "sejen": 5927,
      "kredit": 5928,
      "kesejahteraan": 5929,
      "memainkan": 5930,
      "##uw": 5931,
      "perekonomian": 5932,
      "##intangi": 5933,
      "##orona": 5934,
      "pelatihan": 5935,
      "pengelolaan": 5936,
      "tambah": 5937,
      "kerugian": 5938,
      "##ujudkan": 5939,
      "nggak": 5940,
      "menghindari": 5941,
      "kemajuan": 5942,
      "indones": 5943,
      "tag": 5944,
      "negatif": 5945,
      "liter": 5946,
      "suhu": 5947,
      "menangani": 5948,
      "corona": 5949,
      "crying": 5950,
      "sebut": 5951,
      "aplikasi": 5952,
      "ars": 5953,
      "mempengaruhi": 5954,
      "penerbit": 5955,
      "##ric": 5956,
      "murah": 5957,
      "transportasi": 5958,
      "loud": 5959,
      "loudly": 5960,
      "you": 5961,
      "ditutup": 5962,
      "ajang": 5963,
      "diproduksi": 5964,
      "diminta": 5965,
      "lum": 5966,
      "##are": 5967,
      "##erja": 5968,
      "pengikut": 5969,
      "berbuat": 5970,
      "##laim": 5971,
      "##aktif": 5972,
      "tir": 5973,
      "tant": 5974,
      "indust": 5975,
      "moral": 5976,
      "##esta": 5977,
      "pasalnya": 5978,
      "sasaran": 5979,
      "pres": 5980,
      "##itu": 5981,
      "1996": 5982,
      "dal": 5983,
      "perpustakaan": 5984,
      "##jawab": 5985,
      "kod": 5986,
      "rec": 5987,
      "betapa": 5988,
      "smiling": 5989,
      "triliun": 5990,
      "aneh": 5991,
      "##kw": 5992,
      "##kr": 5993,
      "##ihatan": 5994,
      "rekaman": 5995,
      "bendera": 5996,
      "##urang": 5997,
      "membuktikan": 5998,
      "kerjasama": 5999,
      "strateg": 6000,
      "we": 6001,
      "##sb": 6002,
      "posit": 6003,
      "gejala": 6004,
      "beroperasi": 6005,
      "##eku": 6006,
      "##ikal": 6007,
      "coba": 6008,
      "cuc": 6009,
      "tangerang": 6010,
      "av": 6011,
      "covid19": 6012,
      "umur": 6013,
      "menawarkan": 6014,
      "kk": 6015,
      "tipe": 6016,
      "##utkan": 6017,
      "pengunjung": 6018,
      "institusi": 6019,
      "pemahaman": 6020,
      "hear": 6021,
      "##ff": 6022,
      "dihasilkan": 6023,
      "cipta": 6024,
      "iklan": 6025,
      "suaminya": 6026,
      "flu": 6027,
      "masyarak": 6028,
      "hands": 6029,
      "latar": 6030,
      "rumahnya": 6031,
      "lulus": 6032,
      "hindu": 6033,
      "optim": 6034,
      "##ado": 6035,
      "spark": 6036,
      "senior": 6037,
      "sparkles": 6038,
      "minuman": 6039,
      "danau": 6040,
      "sih": 6041,
      "##uss": 6042,
      "##ears": 6043,
      "tears": 6044,
      "kesatuan": 6045,
      "kementerian": 6046,
      "identitas": 6047,
      "bgt": 6048,
      "##eld": 6049,
      "akadem": 6050,
      "komponen": 6051,
      "thread": 6052,
      "kunci": 6053,
      "diperk": 6054,
      "zat": 6055,
      "besi": 6056,
      "fold": 6057,
      "hasan": 6058,
      "lebar": 6059,
      "syah": 6060,
      "##jur": 6061,
      "2018": 6062,
      "##abah": 6063,
      "diakui": 6064,
      "nen": 6065,
      "folded": 6066,
      "sosok": 6067,
      "abdullah": 6068,
      "##ams": 6069,
      "tahanan": 6070,
      "##chi": 6071,
      "selector": 6072,
      "##iki": 6073,
      "##aring": 6074,
      "prajurit": 6075,
      "anies": 6076,
      "##ambung": 6077,
      "gula": 6078,
      "pasir": 6079,
      "diperiksa": 6080,
      "transfer": 6081,
      "nuk": 6082,
      "##its": 6083,
      "berjumlah": 6084,
      "kewajiban": 6085,
      "skor": 6086,
      "thailand": 6087,
      "aset": 6088,
      "gre": 6089,
      "##lu": 6090,
      "wkw": 6091,
      "tiada": 6092,
      "##zal": 6093,
      "menentang": 6094,
      "berumur": 6095,
      "manchester": 6096,
      "sore": 6097,
      "fenom": 6098,
      "didukung": 6099,
      "##agaan": 6100,
      "perbaikan": 6101,
      "##orasi": 6102,
      "##pk": 6103,
      "mengus": 6104,
      "dewi": 6105,
      "##dk": 6106,
      "plat": 6107,
      "tone": 6108,
      "fac": 6109,
      "keselamatan": 6110,
      "out": 6111,
      "nark": 6112,
      "42": 6113,
      "##ormati": 6114,
      "terawan": 6115,
      "debut": 6116,
      "kajian": 6117,
      "##enangkan": 6118,
      "##ect": 6119,
      "diw": 6120,
      "banyaknya": 6121,
      "##krut": 6122,
      "imp": 6123,
      "menemui": 6124,
      "setidaknya": 6125,
      "gaji": 6126,
      "##ory": 6127,
      "twit": 6128,
      "##oga": 6129,
      "##tau": 6130,
      "buatan": 6131,
      "karang": 6132,
      "##inar": 6133,
      "konsumen": 6134,
      "##awas": 6135,
      "makam": 6136,
      "ditahan": 6137,
      "udh": 6138,
      "kuning": 6139,
      "dini": 6140,
      "kus": 6141,
      "perairan": 6142,
      "kinerja": 6143,
      "hadiah": 6144,
      "star": 6145,
      "pesantren": 6146,
      "##ungkap": 6147,
      "##epend": 6148,
      "##ormatan": 6149,
      "tal": 6150,
      "kebi": 6151,
      "##ito": 6152,
      "asy": 6153,
      "##yang": 6154,
      "ditambah": 6155,
      "##agung": 6156,
      "1995": 6157,
      "apd": 6158,
      "unik": 6159,
      "semata": 6160,
      "##way": 6161,
      "kesadaran": 6162,
      "jas": 6163,
      "komis": 6164,
      "seiring": 6165,
      "kelima": 6166,
      "pertamina": 6167,
      "termin": 6168,
      "dosen": 6169,
      "las": 6170,
      "mengunjungi": 6171,
      "diatas": 6172,
      "gemb": 6173,
      "pemi": 6174,
      "dialog": 6175,
      "wa": 6176,
      "beragam": 6177,
      "ra": 6178,
      "##iswa": 6179,
      "kering": 6180,
      "ambon": 6181,
      "pikir": 6182,
      "##dy": 6183,
      "menghentikan": 6184,
      "##ays": 6185,
      "diskusi": 6186,
      "adil": 6187,
      "menghancurkan": 6188,
      "paris": 6189,
      "tat": 6190,
      "##car": 6191,
      "##ocok": 6192,
      "##pol": 6193,
      "##iden": 6194,
      "##hu": 6195,
      "berbahasa": 6196,
      "filsafat": 6197,
      "seolah": 6198,
      "berapa": 6199,
      "label": 6200,
      "##itungan": 6201,
      "perdamaian": 6202,
      "konteks": 6203,
      "tend": 6204,
      "analisis": 6205,
      "##yanya": 6206,
      "perawatan": 6207,
      "berhak": 6208,
      "##ertempatan": 6209,
      "independ": 6210,
      "gelap": 6211,
      "##yal": 6212,
      "peneliti": 6213,
      "pembicara": 6214,
      "##ebaran": 6215,
      "##use": 6216,
      "##hael": 6217,
      "##aysia": 6218,
      "##ohir": 6219,
      "##ensif": 6220,
      "400": 6221,
      "komunis": 6222,
      "##utif": 6223,
      "dp": 6224,
      "##rahim": 6225,
      "prestasi": 6226,
      "fe": 6227,
      "laga": 6228,
      "area": 6229,
      "legisl": 6230,
      "##oner": 6231,
      "pencipta": 6232,
      "los": 6233,
      "are": 6234,
      "rencananya": 6235,
      "melanggar": 6236,
      "pn": 6237,
      "##etakkan": 6238,
      "berbahaya": 6239,
      "##inting": 6240,
      "keman": 6241,
      "keberh": 6242,
      "##inning": 6243,
      "bursa": 6244,
      "cok": 6245,
      "##ebon": 6246,
      "##agama": 6247,
      "halnya": 6248,
      "dibagi": 6249,
      "mengend": 6250,
      "merujuk": 6251,
      "##wis": 6252,
      "nar": 6253,
      "##otan": 6254,
      "##jem": 6255,
      "thohir": 6256,
      "floor": 6257,
      "##edak": 6258,
      "dk": 6259,
      "##akh": 6260,
      "sesudah": 6261,
      "darurat": 6262,
      "##awatir": 6263,
      "laugh": 6264,
      "dll": 6265,
      "nap": 6266,
      "oksigen": 6267,
      "##ersial": 6268,
      "rock": 6269,
      "##ash": 6270,
      "39": 6271,
      "administrasi": 6272,
      "agen": 6273,
      "gabungan": 6274,
      "juru": 6275,
      "##abiskan": 6276,
      "laughing": 6277,
      "pemenang": 6278,
      "memperbaiki": 6279,
      "mendesak": 6280,
      "konferensi": 6281,
      "grinning": 6282,
      "detik": 6283,
      "beserta": 6284,
      "cil": 6285,
      "sapi": 6286,
      "##nan": 6287,
      "##yum": 6288,
      "tarif": 6289,
      "nelayan": 6290,
      "karen": 6291,
      "##indo": 6292,
      "sampah": 6293,
      "hus": 6294,
      "kuda": 6295,
      "##tibmas": 6296,
      "##alanya": 6297,
      "kumpulan": 6298,
      "wang": 6299,
      "emosi": 6300,
      "kopi": 6301,
      "menak": 6302,
      "##ford": 6303,
      "berkat": 6304,
      "maaf": 6305,
      "mengumpulkan": 6306,
      "##rib": 6307,
      "##aluran": 6308,
      "pondok": 6309,
      "cy": 6310,
      "##amtibmas": 6311,
      "pengertian": 6312,
      "##iti": 6313,
      "##yangkan": 6314,
      "bhab": 6315,
      "komisaris": 6316,
      "##oma": 6317,
      "liver": 6318,
      "##lakukan": 6319,
      "demokrat": 6320,
      "phil": 6321,
      "##udin": 6322,
      "putaran": 6323,
      "hebat": 6324,
      "utang": 6325,
      "##inkamtibmas": 6326,
      "nusantara": 6327,
      "bhabinkamtibmas": 6328,
      "##ajat": 6329,
      "wind": 6330,
      "mengarah": 6331,
      "keag": 6332,
      "75": 6333,
      "##arant": 6334,
      "dec": 6335,
      "akal": 6336,
      "pengend": 6337,
      "dibawah": 6338,
      "selepas": 6339,
      "kump": 6340,
      "##elit": 6341,
      "beban": 6342,
      "insiden": 6343,
      "bertujuan": 6344,
      "##rahman": 6345,
      "##akerja": 6346,
      "jps": 6347,
      "khawatir": 6348,
      "eksekutif": 6349,
      "truk": 6350,
      "diperb": 6351,
      "41": 6352,
      "penemuan": 6353,
      "hadapan": 6354,
      "2021": 6355,
      "beli": 6356,
      "mahas": 6357,
      "##rak": 6358,
      "##ser": 6359,
      "omn": 6360,
      "gil": 6361,
      "1994": 6362,
      "cirebon": 6363,
      "timnas": 6364,
      "##urunan": 6365,
      "pegunungan": 6366,
      "kebiasaan": 6367,
      "kapasitas": 6368,
      "##opsi": 6369,
      "##arjo": 6370,
      "##mpin": 6371,
      "##lum": 6372,
      "mengab": 6373,
      "##unakan": 6374,
      "inti": 6375,
      "##ower": 6376,
      "penyeb": 6377,
      "cip": 6378,
      "##lawan": 6379,
      "aja": 6380,
      "stabil": 6381,
      "istimewa": 6382,
      "bed": 6383,
      "daf": 6384,
      "purw": 6385,
      "perkeb": 6386,
      "##icarakan": 6387,
      "omnibus": 6388,
      "##sin": 6389,
      "pengakuan": 6390,
      "semoga": 6391,
      "##bal": 6392,
      "bersedia": 6393,
      "putr": 6394,
      "penurunan": 6395,
      "keju": 6396,
      "##ihatkan": 6397,
      "patung": 6398,
      "jambi": 6399,
      "kian": 6400,
      "visi": 6401,
      "rich": 6402,
      "##amar": 6403,
      "kapan": 6404,
      "##itmen": 6405,
      "blok": 6406,
      "##ume": 6407,
      "pointing": 6408,
      "##ear": 6409,
      "perkebunan": 6410,
      "level": 6411,
      "pangan": 6412,
      "##mer": 6413,
      "55": 6414,
      "hektar": 6415,
      "diman": 6416,
      "43": 6417,
      "ca": 6418,
      "##acu": 6419,
      "berkuasa": 6420,
      "##encanakan": 6421,
      "tertarik": 6422,
      "##adapi": 6423,
      "##oo": 6424,
      "##wedan": 6425,
      "##ankan": 6426,
      "mengajak": 6427,
      "##inaan": 6428,
      "online": 6429,
      "boc": 6430,
      "pembuk": 6431,
      "menaker": 6432,
      "resmikan": 6433,
      "backh": 6434,
      "pahlawan": 6435,
      "backhand": 6436,
      "membuatnya": 6437,
      "tanya": 6438,
      "sap": 6439,
      "##timbangan": 6440,
      "##kes": 6441,
      "krim": 6442,
      "komandan": 6443,
      "##ubung": 6444,
      "48": 6445,
      "merusak": 6446,
      "##idah": 6447,
      "penyeles": 6448,
      "hand": 6449,
      "cak": 6450,
      "iklim": 6451,
      "wujud": 6452,
      "janji": 6453,
      "##ikul": 6454,
      "pengawasan": 6455,
      "dinding": 6456,
      "##obi": 6457,
      "##net": 6458,
      "##ayangkan": 6459,
      "angkutan": 6460,
      "inkubasi": 6461,
      "##egan": 6462,
      "benteng": 6463,
      "##ander": 6464,
      "##ppk": 6465,
      "baswedan": 6466,
      "komando": 6467,
      "gigi": 6468,
      "asasi": 6469,
      "lapisan": 6470,
      "44": 6471,
      "bbppk": 6472,
      "skr": 6473,
      "##str": 6474,
      "##owo": 6475,
      "tepatnya": 6476,
      "##pool": 6477,
      "news": 6478,
      "##rani": 6479,
      "prakerja": 6480,
      "bagaiman": 6481,
      "sinar": 6482,
      "##away": 6483,
      "##tain": 6484,
      "kelapa": 6485,
      "##ugh": 6486,
      "ibrahim": 6487,
      "panggung": 6488,
      "sayap": 6489,
      "mask": 6490,
      "penilai": 6491,
      "berw": 6492,
      "##araf": 6493,
      "memeriksa": 6494,
      "menyaksikan": 6495,
      "dolar": 6496,
      "pay": 6497,
      "mesti": 6498,
      "belah": 6499,
      "brig": 6500,
      "##pres": 6501,
      "kamb": 6502,
      "fre": 6503,
      "##udik": 6504,
      "tiket": 6505,
      "elemen": 6506,
      "pkp": 6507,
      "tertutup": 6508,
      "gat": 6509,
      "##fek": 6510,
      "temp": 6511,
      "bangs": 6512,
      "paul": 6513,
      "##adaban": 6514,
      "##ombongan": 6515,
      "sekitarnya": 6516,
      "kudus": 6517,
      "##istem": 6518,
      "tajam": 6519,
      "##angkutan": 6520,
      "##ove": 6521,
      "lan": 6522,
      "kanada": 6523,
      "##eat": 6524,
      "persa": 6525,
      "memperhatikan": 6526,
      "##enangan": 6527,
      "personel": 6528,
      "##ony": 6529,
      "menyeb": 6530,
      "seksual": 6531,
      "om": 6532,
      "from": 6533,
      "baharu": 6534,
      "giveaway": 6535,
      "dipert": 6536,
      "anjing": 6537,
      "mengancam": 6538,
      "menceritakan": 6539,
      "telur": 6540,
      "perayaan": 6541,
      "##aming": 6542,
      "##erat": 6543,
      "##usiaan": 6544,
      "pis": 6545,
      "mm": 6546,
      "##presi": 6547,
      "menerus": 6548,
      "kotak": 6549,
      "fenomena": 6550,
      "nenek": 6551,
      "cac": 6552,
      "susu": 6553,
      "park": 6554,
      "##indung": 6555,
      "umar": 6556,
      "dijalan": 6557,
      "##stem": 6558,
      "digital": 6559,
      "kemiskinan": 6560,
      "jgn": 6561,
      "mengingatkan": 6562,
      "sekadar": 6563,
      "membantah": 6564,
      "terdakwa": 6565,
      "diatur": 6566,
      "nor": 6567,
      "perwira": 6568,
      "menduduki": 6569,
      "##ool": 6570,
      "diplom": 6571,
      "mengerti": 6572,
      "jun": 6573,
      "melepaskan": 6574,
      "sewaktu": 6575,
      "penyelidikan": 6576,
      "kn": 6577,
      "group": 6578,
      "tuduhan": 6579,
      "michael": 6580,
      "peneg": 6581,
      "otor": 6582,
      "##jang": 6583,
      "mencatat": 6584,
      "teluk": 6585,
      "kegagalan": 6586,
      "stat": 6587,
      "##siapkan": 6588,
      "aktivis": 6589,
      "sesama": 6590,
      "##ansi": 6591,
      "ub": 6592,
      "ikatan": 6593,
      "pesisir": 6594,
      "tryout": 6595,
      "persiapan": 6596,
      "swt": 6597,
      "contohnya": 6598,
      "urutan": 6599,
      "liverpool": 6600,
      "sebaiknya": 6601,
      "elektronik": 6602,
      "kapten": 6603,
      "##atanya": 6604,
      "##ampau": 6605,
      "dipercaya": 6606,
      "keberhasilan": 6607,
      "mengat": 6608,
      "tantangan": 6609,
      "187": 6610,
      "berjanji": 6611,
      "mahal": 6612,
      "ingat": 6613,
      "##ulusan": 6614,
      "firman": 6615,
      "##olehkan": 6616,
      "cad": 6617,
      "pesta": 6618,
      "hil": 6619,
      "wkwk": 6620,
      "47": 6621,
      "bec": 6622,
      "sor": 6623,
      "wkwkw": 6624,
      "##uta": 6625,
      "ec": 6626,
      "sebutan": 6627,
      "memerintahkan": 6628,
      "mekanisme": 6629,
      "##awar": 6630,
      "46": 6631,
      "lolos": 6632,
      "sand": 6633,
      "reli": 6634,
      "usah": 6635,
      "beragama": 6636,
      "center": 6637,
      "ketat": 6638,
      "beda": 6639,
      "est": 6640,
      "rangkaian": 6641,
      "hindia": 6642,
      "##luan": 6643,
      "dialami": 6644,
      "viet": 6645,
      "biru": 6646,
      "##kait": 6647,
      "kanak": 6648,
      "teknis": 6649,
      "adam": 6650,
      "rancangan": 6651,
      "menempati": 6652,
      "soekarno": 6653,
      "keperluan": 6654,
      "plas": 6655,
      "perbankan": 6656,
      "mengganggu": 6657,
      "sad": 6658,
      "thumb": 6659,
      "nag": 6660,
      "skala": 6661,
      "manfaat": 6662,
      "black": 6663,
      "51": 6664,
      "komite": 6665,
      "##aikkan": 6666,
      "thumbs": 6667,
      "dilengkapi": 6668,
      "##uy": 6669,
      "pjj": 6670,
      "ilmuwan": 6671,
      "layar": 6672,
      "tersend": 6673,
      "##mah": 6674,
      "guys": 6675,
      "mir": 6676,
      "huk": 6677,
      "yusuf": 6678,
      "memperkuat": 6679,
      "##adiem": 6680,
      "profes": 6681,
      "kalla": 6682,
      "jari": 6683,
      "nadiem": 6684,
      "rambut": 6685,
      "pendiri": 6686,
      "ekor": 6687,
      "##atorium": 6688,
      "bac": 6689,
      "pembah": 6690,
      "penya": 6691,
      "penutup": 6692,
      "##sal": 6693,
      "aut": 6694,
      "melalu": 6695,
      "risiko": 6696,
      "berdarah": 6697,
      "##rol": 6698,
      "sarjana": 6699,
      "konsul": 6700,
      "pertimbangan": 6701,
      "tersebar": 6702,
      "robert": 6703,
      "##que": 6704,
      "##kini": 6705,
      "logam": 6706,
      "##ikirkan": 6707,
      "##emas": 6708,
      "##etakan": 6709,
      "pengganti": 6710,
      "##iplin": 6711,
      "impor": 6712,
      "##antikan": 6713,
      "berpengaruh": 6714,
      "aip": 6715,
      "pertunjukan": 6716,
      "diungkapkan": 6717,
      "kritis": 6718,
      "##gia": 6719,
      "##omi": 6720,
      "tki": 6721,
      "menempatkan": 6722,
      "menanggapi": 6723,
      "tahunan": 6724,
      "mengant": 6725,
      "persidangan": 6726,
      "aiptu": 6727,
      "letak": 6728,
      "menerapkan": 6729,
      "menghabiskan": 6730,
      "##angkapan": 6731,
      "##we": 6732,
      "##aren": 6733,
      "waf": 6734,
      "kebun": 6735,
      "penyelesaian": 6736,
      "##ominasi": 6737,
      "peta": 6738,
      "tenang": 6739,
      "kala": 6740,
      "lupa": 6741,
      "karenanya": 6742,
      "berjuang": 6743,
      "jaminan": 6744,
      "##oks": 6745,
      "ucapan": 6746,
      "##20": 6747,
      "poli": 6748,
      "tetangga": 6749,
      "ganti": 6750,
      "##irinya": 6751,
      "play": 6752,
      "tetep": 6753,
      "tubuhnya": 6754,
      "dikutip": 6755,
      "##eth": 6756,
      "berupaya": 6757,
      "mawardi": 6758,
      "2020t": 6759,
      "##upuk": 6760,
      "sayangnya": 6761,
      "kac": 6762,
      "##rus": 6763,
      "dibertempatan": 6764,
      "##masi": 6765,
      "histor": 6766,
      "diserahkan": 6767,
      "150": 6768,
      "evolusi": 6769,
      "##arak": 6770,
      "##los": 6771,
      "kamishari": 6772,
      "dong": 6773,
      "peradaban": 6774,
      "dakwah": 6775,
      "2020tanggal": 6776,
      "system": 6777,
      "studio": 6778,
      "skrg": 6779,
      "jati": 6780,
      "##ings": 6781,
      "mengalir": 6782,
      "strategis": 6783,
      "##onya": 6784,
      "sweat": 6785,
      "kart": 6786,
      "diciptakan": 6787,
      "pandang": 6788,
      "kemanusiaan": 6789,
      "##inking": 6790,
      "hiburan": 6791,
      "penilaian": 6792,
      "##yanto": 6793,
      "##aud": 6794,
      "perlawanan": 6795,
      "terminal": 6796,
      "memanggil": 6797,
      "induk": 6798,
      "mengisi": 6799,
      "##anakan": 6800,
      "pensive": 6801,
      "angel": 6802,
      "ic": 6803,
      "##ebo": 6804,
      "##ular": 6805,
      "etnis": 6806,
      "diterapkan": 6807,
      "rap": 6808,
      "lukisan": 6809,
      "mengam": 6810,
      "memaksa": 6811,
      "samud": 6812,
      "tertulis": 6813,
      "setia": 6814,
      "ven": 6815,
      "##etapan": 6816,
      "prob": 6817,
      "klasik": 6818,
      "menyambut": 6819,
      "rh": 6820,
      "##namen": 6821,
      "peduli": 6822,
      "cantik": 6823,
      "terdampak": 6824,
      "mulia": 6825,
      "mengec": 6826,
      "naz": 6827,
      "padi": 6828,
      "mandiri": 6829,
      "sahaja": 6830,
      "bany": 6831,
      "cek": 6832,
      "##ampingi": 6833,
      "pleading": 6834,
      "##aram": 6835,
      "penda": 6836,
      "tutur": 6837,
      "##uruk": 6838,
      "keagamaan": 6839,
      "##alisi": 6840,
      "unt": 6841,
      "##inci": 6842,
      "##ahi": 6843,
      "semasa": 6844,
      "##jol": 6845,
      "kandungan": 6846,
      "kond": 6847,
      "intelek": 6848,
      "lantas": 6849,
      "##masuk": 6850,
      "doang": 6851,
      "pencarian": 6852,
      "pembagian": 6853,
      "besarnya": 6854,
      "rupa": 6855,
      "hip": 6856,
      "##las": 6857,
      "unggul": 6858,
      "vis": 6859,
      "##olri": 6860,
      "##ook": 6861,
      "dilanjutkan": 6862,
      "sumatera": 6863,
      "perumahan": 6864,
      "polandia": 6865,
      "term": 6866,
      "##covid": 6867,
      "##ancarkan": 6868,
      "disertai": 6869,
      "dilarang": 6870,
      "kanker": 6871,
      "##enger": 6872,
      "##argai": 6873,
      "signif": 6874,
      "menyangkut": 6875,
      "lomba": 6876,
      "ngom": 6877,
      "mr": 6878,
      "##ajwa": 6879,
      "kaca": 6880,
      "sinetron": 6881,
      "salam": 6882,
      "##guna": 6883,
      "lubang": 6884,
      "orang2": 6885,
      "##mptn": 6886,
      "vietnam": 6887,
      "##mark": 6888,
      "george": 6889,
      "##fr": 6890,
      "2020b": 6891,
      "odp": 6892,
      "kandang": 6893,
      "jend": 6894,
      "##ins": 6895,
      "##osh": 6896,
      "bekasi": 6897,
      "bod": 6898,
      "medis": 6899,
      "penduduknya": 6900,
      "sejenis": 6901,
      "pakar": 6902,
      "digantikan": 6903,
      "##ambangan": 6904,
      "##ayangan": 6905,
      "undangan": 6906,
      "kain": 6907,
      "unjuk": 6908,
      "surya": 6909,
      "2020bertempatan": 6910,
      "pelanggan": 6911,
      "pkb": 6912,
      "liar": 6913,
      "kosong": 6914,
      "menemp": 6915,
      "konvensi": 6916,
      "labor": 6917,
      "dilah": 6918,
      "dipanggil": 6919,
      "solusi": 6920,
      "kompas": 6921,
      "ekspor": 6922,
      "perut": 6923,
      "##rom": 6924,
      "merilis": 6925,
      "pergerakan": 6926,
      "beaming": 6927,
      "formula": 6928,
      "west": 6929,
      "senilai": 6930,
      "##upan": 6931,
      "tali": 6932,
      "jak": 6933,
      "##ikbud": 6934,
      "keu": 6935,
      "dor": 6936,
      "##ormasi": 6937,
      "gratis": 6938,
      "teh": 6939,
      "##jabat": 6940,
      "memec": 6941,
      "menyerap": 6942,
      "##uai": 6943,
      "seluas": 6944,
      "terbakar": 6945,
      "ibnu": 6946,
      "kreatif": 6947,
      "bersikap": 6948,
      "##entrasi": 6949,
      "##eni": 6950,
      "melarang": 6951,
      "##vi": 6952,
      "petunjuk": 6953,
      "jej": 6954,
      "keterl": 6955,
      "##agic": 6956,
      "mengenakan": 6957,
      "##gasi": 6958,
      "lobs": 6959,
      "gamp": 6960,
      "##dam": 6961,
      "kakak": 6962,
      "kesenian": 6963,
      "##apres": 6964,
      "membela": 6965,
      "pengobatan": 6966,
      "kesimpulan": 6967,
      "##ejo": 6968,
      "peranan": 6969,
      "karyanya": 6970,
      "paket": 6971,
      "kebangkitan": 6972,
      "lobster": 6973,
      "56": 6974,
      "kubu": 6975,
      "syariah": 6976,
      "##ekuensi": 6977,
      "##cing": 6978,
      "##ical": 6979,
      "pakistan": 6980,
      "sari": 6981,
      "sutradara": 6982,
      "pembayaran": 6983,
      "persetujuan": 6984,
      "purn": 6985,
      "menjamin": 6986,
      "nantinya": 6987,
      "jadwal": 6988,
      "maksimal": 6989,
      "temannya": 6990,
      "koran": 6991,
      "##zh": 6992,
      "mengirimkan": 6993,
      "##ese": 6994,
      "iaitu": 6995,
      "memproduksi": 6996,
      "diubah": 6997,
      "mom": 6998,
      "hum": 6999,
      "##rut": 7000,
      "semp": 7001,
      "with": 7002,
      "sawah": 7003,
      "mendekati": 7004,
      "##uhur": 7005,
      "52": 7006,
      "diajukan": 7007,
      "rid": 7008,
      "rombongan": 7009,
      "signifikan": 7010,
      "nuklir": 7011,
      "berencana": 7012,
      "sr": 7013,
      "##fud": 7014,
      "dikit": 7015,
      "##aluasi": 7016,
      "kebaikan": 7017,
      "matemat": 7018,
      "##odo": 7019,
      "wajar": 7020,
      "terdengar": 7021,
      "bot": 7022,
      "menginginkan": 7023,
      "arsenal": 7024,
      "manis": 7025,
      "raks": 7026,
      "##ekonom": 7027,
      "##yon": 7028,
      "##ateg": 7029,
      "penyimp": 7030,
      "cocok": 7031,
      "##ugikan": 7032,
      "tawaran": 7033,
      "perahu": 7034,
      "kag": 7035,
      "terbuat": 7036,
      "54": 7037,
      "nambah": 7038,
      "but": 7039,
      "disini": 7040,
      "gem": 7041,
      "186": 7042,
      "##ogo": 7043,
      "transaksi": 7044,
      "hatta": 7045,
      "##mpt": 7046,
      "agenda": 7047,
      "baku": 7048,
      "palsu": 7049,
      "putusan": 7050,
      "hancur": 7051,
      "katakan": 7052,
      "diad": 7053,
      "komitmen": 7054,
      "kesan": 7055,
      "##tivitas": 7056,
      "##aib": 7057,
      "##wisata": 7058,
      "mam": 7059,
      "sekit": 7060,
      "53": 7061,
      "hrs": 7062,
      "2019": 7063,
      "terbagi": 7064,
      "blm": 7065,
      "##ise": 7066,
      "##abil": 7067,
      "49": 7068,
      "tka": 7069,
      "kedok": 7070,
      "pembaca": 7071,
      "##malaysia": 7072,
      "##berg": 7073,
      "murni": 7074,
      "bersenjata": 7075,
      "dilahirkan": 7076,
      "##bagai": 7077,
      "##asihat": 7078,
      "otg": 7079,
      "##omend": 7080,
      "menyiapkan": 7081,
      "tepi": 7082,
      "sia": 7083,
      "##abisa": 7084,
      "natal": 7085,
      "fc": 7086,
      "boy": 7087,
      "jajaran": 7088,
      "win": 7089,
      "##rama": 7090,
      "teroris": 7091,
      "##imbang": 7092,
      "##erus": 7093,
      "##adhan": 7094,
      "dimasukkan": 7095,
      "panggilan": 7096,
      "lockdown": 7097,
      "mengembalikan": 7098,
      "vs": 7099,
      "sbmptn": 7100,
      "tsunami": 7101,
      "##olakan": 7102,
      "balai": 7103,
      "pengk": 7104,
      "##fan": 7105,
      "pensi": 7106,
      "prosedur": 7107,
      "eksp": 7108,
      "##eti": 7109,
      "kaw": 7110,
      "sunda": 7111,
      "kli": 7112,
      "covid19malaysia": 7113,
      "mendatangi": 7114,
      "didasarkan": 7115,
      "najwa": 7116,
      "menara": 7117,
      "zh": 7118,
      "uji": 7119,
      "ais": 7120,
      "zona": 7121,
      "##ikh": 7122,
      "##enam": 7123,
      "##waan": 7124,
      "hut": 7125,
      "mewujudkan": 7126,
      "##alas": 7127,
      "lampu": 7128,
      "diturunkan": 7129,
      "trs": 7130,
      "ran": 7131,
      "nyari": 7132,
      "##indones": 7133,
      "nusa": 7134,
      "diantara": 7135,
      "##js": 7136,
      "##lok": 7137,
      "##ks": 7138,
      "##tad": 7139,
      "orde": 7140,
      "bilang": 7141,
      "##hip": 7142,
      "ruu": 7143,
      "##izinkan": 7144,
      "read": 7145,
      "menyimpan": 7146,
      "berlanjut": 7147,
      "kelak": 7148,
      "##ovasi": 7149,
      "pasca": 7150,
      "perencanaan": 7151,
      "58": 7152,
      "pembat": 7153,
      "engga": 7154,
      "##etulan": 7155,
      "gambaran": 7156,
      "maks": 7157,
      "maklum": 7158,
      "##tivasi": 7159,
      "mending": 7160,
      "65": 7161,
      "57": 7162,
      "internal": 7163,
      "bob": 7164,
      "kg": 7165,
      "##imu": 7166,
      "##fl": 7167,
      "##10": 7168,
      "muhammadiyah": 7169,
      "fokus": 7170,
      "##uaran": 7171,
      "##omas": 7172,
      "ltmpt": 7173,
      "##tris": 7174,
      "penyelenggaraan": 7175,
      "hik": 7176,
      "tersendiri": 7177,
      "entah": 7178,
      "otom": 7179,
      "fitur": 7180,
      "mengklaim": 7181,
      "dibunuh": 7182,
      "tukang": 7183,
      "lim": 7184,
      "this": 7185,
      "kadar": 7186,
      "memasukkan": 7187,
      "saudi": 7188,
      "pip": 7189,
      "lunak": 7190,
      "rud": 7191,
      "didalam": 7192,
      "mb": 7193,
      "ner": 7194,
      "##teran": 7195,
      "cepet": 7196,
      "pek": 7197,
      "raksasa": 7198,
      "independen": 7199,
      "nan": 7200,
      "palembang": 7201,
      "##covid19": 7202,
      "aud": 7203,
      "puas": 7204,
      "bapa": 7205,
      "sangg": 7206,
      "isteri": 7207,
      "##vasi": 7208,
      "menk": 7209,
      "gabisa": 7210,
      "cop": 7211,
      "candi": 7212,
      "##jt": 7213,
      "pdip": 7214,
      "dasarnya": 7215,
      "ori": 7216,
      "riset": 7217,
      "jin": 7218,
      "hai": 7219,
      "surga": 7220,
      "##ekor": 7221,
      "citra": 7222,
      "seminggu": 7223,
      "yan": 7224,
      "diyakini": 7225,
      "law": 7226,
      "kebetulan": 7227,
      "kemaren": 7228,
      "##bn": 7229,
      "##angkatan": 7230,
      "bertentangan": 7231,
      "##egaraan": 7232,
      "tweet": 7233,
      "berkumpul": 7234,
      "respon": 7235,
      "##vin": 7236,
      "kelihatan": 7237,
      "gerak": 7238,
      "##ambu": 7239,
      "ruk": 7240,
      "##imal": 7241,
      "heran": 7242,
      "##identifikasi": 7243,
      "akr": 7244,
      "pemul": 7245,
      "berbatasan": 7246,
      "##irik": 7247,
      "##ere": 7248,
      "##sm": 7249,
      "nyaris": 7250,
      "##sy": 7251,
      "dipenuhi": 7252,
      "##utri": 7253,
      "manag": 7254,
      "fal": 7255,
      "62": 7256,
      "baju": 7257,
      "##arankan": 7258,
      "satelit": 7259,
      "dimaksudkan": 7260,
      "600": 7261,
      "enter": 7262,
      "national": 7263,
      "akar": 7264,
      "##abkan": 7265,
      "##ster": 7266,
      "arif": 7267,
      "##atalkan": 7268,
      "##jemahkan": 7269,
      "nep": 7270,
      "pinjaman": 7271,
      "ebit": 7272,
      "diumumkan": 7273,
      "kebut": 7274,
      "besok": 7275,
      "ja": 7276,
      "##bum": 7277,
      "raf": 7278,
      "bansos": 7279,
      "dipastikan": 7280,
      "##enting": 7281,
      "##ulah": 7282,
      "vic": 7283,
      "ditujukan": 7284,
      "##ture": 7285,
      "padat": 7286,
      "frank": 7287,
      "kalo": 7288,
      "inc": 7289,
      "bunuh": 7290,
      "menye": 7291,
      "mengejar": 7292,
      "kai": 7293,
      "##inah": 7294,
      "##obl": 7295,
      "##erik": 7296,
      "efisi": 7297,
      "amp": 7298,
      "##orit": 7299,
      "terbaru": 7300,
      "seniman": 7301,
      "##lang": 7302,
      "beneran": 7303,
      "##bud": 7304,
      "kuala": 7305,
      "##date": 7306,
      "oc": 7307,
      "sebenernya": 7308,
      "meg": 7309,
      "ash": 7310,
      "tap": 7311,
      "##onsumsi": 7312,
      "##astian": 7313,
      "bergantung": 7314,
      "perancis": 7315,
      "##erh": 7316,
      "##rim": 7317,
      "slight": 7318,
      "slightly": 7319,
      "ditempatkan": 7320,
      "swedia": 7321,
      "demam": 7322,
      "port": 7323,
      "depok": 7324,
      "##outh": 7325,
      "samb": 7326,
      "##ario": 7327,
      "cadangan": 7328,
      "##owing": 7329,
      "petang": 7330,
      "kakek": 7331,
      "sesi": 7332,
      "##iru": 7333,
      "rektor": 7334,
      "dicapai": 7335,
      "puasa": 7336,
      "##alem": 7337,
      "##bola": 7338,
      "##weet": 7339,
      "bahaya": 7340,
      "##illah": 7341,
      "amal": 7342,
      "menandatangani": 7343,
      "bagaimanapun": 7344,
      "menghadiri": 7345,
      "maskapai": 7346,
      "sepakat": 7347,
      "trili": 7348,
      "terbit": 7349,
      "tommy": 7350,
      "semesta": 7351,
      "mouth": 7352,
      "dinamakan": 7353,
      "menerbitkan": 7354,
      "petern": 7355,
      "hon": 7356,
      "##ujian": 7357,
      "jl": 7358,
      "terkadang": 7359,
      "jack": 7360,
      "paru": 7361,
      "ups": 7362,
      "##angis": 7363,
      "bersalah": 7364,
      "##idat": 7365,
      "swab": 7366,
      "mek": 7367,
      "semi": 7368,
      "kecewa": 7369,
      "armada": 7370,
      "wi": 7371,
      "##ugerah": 7372,
      "century": 7373,
      "##kom": 7374,
      "tempur": 7375,
      "memerintah": 7376,
      "dirancang": 7377,
      "grand": 7378,
      "usul": 7379,
      "mayat": 7380,
      "kerusuhan": 7381,
      "untung": 7382,
      "alum": 7383,
      "##iraan": 7384,
      "bermula": 7385,
      "kasian": 7386,
      "dimanfaatkan": 7387,
      "gir": 7388,
      "dimak": 7389,
      "ritual": 7390,
      "##ebak": 7391,
      "##arantina": 7392,
      "##abut": 7393,
      "cuaca": 7394,
      "pariwisata": 7395,
      "##lasi": 7396,
      "mental": 7397,
      "##ella": 7398,
      "##ward": 7399,
      "kuali": 7400,
      "teater": 7401,
      "arsitektur": 7402,
      "rasi": 7403,
      "mengundang": 7404,
      "investor": 7405,
      "volume": 7406,
      "koalisi": 7407,
      "akun": 7408,
      "koleksi": 7409,
      "mendengarkan": 7410,
      "##etika": 7411,
      "dam": 7412,
      "##rb": 7413,
      "ala": 7414,
      "kw": 7415,
      "kara": 7416,
      "lak": 7417,
      "emg": 7418,
      "campuran": 7419,
      "##alon": 7420,
      "aq": 7421,
      "ganda": 7422,
      "flor": 7423,
      "memperlihatkan": 7424,
      "asosiasi": 7425,
      "atm": 7426,
      "jahat": 7427,
      "##48": 7428,
      "dijelaskan": 7429,
      "makarim": 7430,
      "##esa": 7431,
      "##oyo": 7432,
      "##2an": 7433,
      "##ikin": 7434,
      "menyusun": 7435,
      "##ipun": 7436,
      "##ott": 7437,
      "gul": 7438,
      "cas": 7439,
      "muslimin": 7440,
      "single": 7441,
      "##ys": 7442,
      "berkurang": 7443,
      "##yp": 7444,
      "##ugas": 7445,
      "lulusan": 7446,
      "sibuk": 7447,
      "ilegal": 7448,
      "##lian": 7449,
      "menyerah": 7450,
      "gram": 7451,
      "meja": 7452,
      "pembukaan": 7453,
      "agresif": 7454,
      "nder": 7455,
      "ngasih": 7456,
      "##okap": 7457,
      "pameran": 7458,
      "otomatis": 7459,
      "rasanya": 7460,
      "##okohkan": 7461,
      "penangkapan": 7462,
      "dipandang": 7463,
      "mengad": 7464,
      "dinam": 7465,
      "hor": 7466,
      "patri": 7467,
      "##dian": 7468,
      "turnamen": 7469,
      "mengokohkan": 7470,
      "##arantentang": 7471,
      "gambarantentang": 7472,
      "##yono": 7473,
      "digambarkan": 7474,
      "formal": 7475,
      "klien": 7476,
      "banda": 7477,
      "rutin": 7478,
      "yohan": 7479,
      "beriman": 7480,
      "menunjuk": 7481,
      "harinya": 7482,
      "kedokteran": 7483,
      "terancam": 7484,
      "that": 7485,
      "paham": 7486,
      "inget": 7487,
      "swiss": 7488,
      "koordinator": 7489,
      "jel": 7490,
      "##ajikan": 7491,
      "sekedar": 7492,
      "warisan": 7493,
      "59": 7494,
      "pendirian": 7495,
      "##aton": 7496,
      "ue": 7497,
      "pentingnya": 7498,
      "laboratorium": 7499,
      "gud": 7500,
      "perak": 7501,
      "upside": 7502,
      "mulu": 7503,
      "aktris": 7504,
      "##untungkan": 7505,
      "pangkalan": 7506,
      "mengu": 7507,
      "mont": 7508,
      "putus": 7509,
      "##antum": 7510,
      "susah": 7511,
      "gaada": 7512,
      "halus": 7513,
      "permohonan": 7514,
      "sedikitnya": 7515,
      "rm": 7516,
      "harry": 7517,
      "habib": 7518,
      "mab": 7519,
      "##cok": 7520,
      "laks": 7521,
      "##30": 7522,
      "kabur": 7523,
      "wkwkwk": 7524,
      "seekor": 7525,
      "barisan": 7526,
      "hamba": 7527,
      "patuhi": 7528,
      "ketak": 7529,
      "roda": 7530,
      "memuat": 7531,
      "cari": 7532,
      "##ile": 7533,
      "##unggulan": 7534,
      "raden": 7535,
      "nak": 7536,
      "pant": 7537,
      "terorisme": 7538,
      "pemegang": 7539,
      "meneruskan": 7540,
      "bersangkutan": 7541,
      "##undur": 7542,
      "##imbangan": 7543,
      "diganti": 7544,
      "isa": 7545,
      "menghubungkan": 7546,
      "tersisa": 7547,
      "##2nya": 7548,
      "##adak": 7549,
      "menyebar": 7550,
      "game": 7551,
      "gak": 7552,
      "penjaga": 7553,
      "tump": 7554,
      "jdi": 7555,
      "##yakit": 7556,
      "##usai": 7557,
      "bersatu": 7558,
      "papan": 7559,
      "rekor": 7560,
      "##idiki": 7561,
      "pew": 7562,
      "pakai": 7563,
      "terlepas": 7564,
      "serv": 7565,
      "keunggulan": 7566,
      "selengkap": 7567,
      "indeks": 7568,
      "angkasa": 7569,
      "lee": 7570,
      "babi": 7571,
      "school": 7572,
      "intelektual": 7573,
      "pram": 7574,
      "gajah": 7575,
      "berharga": 7576,
      "sembak": 7577,
      "##oi": 7578,
      "berguna": 7579,
      "##untung": 7580,
      "windows": 7581,
      "gh": 7582,
      "sekal": 7583,
      "pir": 7584,
      "##gr": 7585,
      "##ale": 7586,
      "##irman": 7587,
      "penangan": 7588,
      "ronal": 7589,
      "jon": 7590,
      "##awakan": 7591,
      "##ekonomian": 7592,
      "bangun": 7593,
      "pasc": 7594,
      "wawancara": 7595,
      "64": 7596,
      "sind": 7597,
      "gur": 7598,
      "sains": 7599,
      "##ude": 7600,
      "##over": 7601,
      "##wab": 7602,
      "##utuhkan": 7603,
      "##apus": 7604,
      "email": 7605,
      "peroleh": 7606,
      "fah": 7607,
      "musa": 7608,
      "##onc": 7609,
      "pembicaraan": 7610,
      "##rian": 7611,
      "kader": 7612,
      "lambat": 7613,
      "skuad": 7614,
      "hearts": 7615,
      "##ribusi": 7616,
      "##aba": 7617,
      "koordinasi": 7618,
      "pdi": 7619,
      "amien": 7620,
      "kementer": 7621,
      "praktek": 7622,
      "sept": 7623,
      "dibantu": 7624,
      "minimal": 7625,
      "sank": 7626,
      "pembantu": 7627,
      "uud": 7628,
      "##kl": 7629,
      "melebih": 7630,
      "##eved": 7631,
      "##atar": 7632,
      "pengacara": 7633,
      "seminar": 7634,
      "ret": 7635,
      "relieved": 7636,
      "##hum": 7637,
      "pura": 7638,
      "hom": 7639,
      "##ambar": 7640,
      "##angin": 7641,
      "##atuhkan": 7642,
      "##antasan": 7643,
      "trag": 7644,
      "retweet": 7645,
      "kandidat": 7646,
      "ditunjuk": 7647,
      "terjemahan": 7648,
      "pemilih": 7649,
      "belanja": 7650,
      "pans": 7651,
      "kontrol": 7652,
      "basis": 7653,
      "persek": 7654,
      "##nik": 7655,
      "pantas": 7656,
      "promosi": 7657,
      "##yek": 7658,
      "selengkapnya": 7659,
      "institut": 7660,
      "pilih": 7661,
      "khali": 7662,
      "berlebihan": 7663,
      "diselesaikan": 7664,
      "##oker": 7665,
      "jatim": 7666,
      "sekelompok": 7667,
      "multi": 7668,
      "##isar": 7669,
      "malaikat": 7670,
      "##otaan": 7671,
      "mimpi": 7672,
      "siti": 7673,
      "hidayat": 7674,
      "gerbang": 7675,
      "##2020": 7676,
      "duta": 7677,
      "pembinaan": 7678,
      "menekankan": 7679,
      "mempersiapkan": 7680,
      "mataram": 7681,
      "operasional": 7682,
      "hay": 7683,
      "anwar": 7684,
      "time": 7685,
      "besaran": 7686,
      "perund": 7687,
      "##apping": 7688,
      "##ole": 7689,
      "##lus": 7690,
      "leh": 7691,
      "rute": 7692,
      "bulu": 7693,
      "subs": 7694,
      "inform": 7695,
      "barcel": 7696,
      "##anyikan": 7697,
      "peperangan": 7698,
      "plis": 7699,
      "ideologi": 7700,
      "daratan": 7701,
      "jumlahnya": 7702,
      "resolusi": 7703,
      "##ayanan": 7704,
      "terjun": 7705,
      "##erj": 7706,
      "##asti": 7707,
      "dihadiri": 7708,
      "##ze": 7709,
      "##amiin": 7710,
      "##operasikan": 7711,
      "hatinya": 7712,
      "penerimaan": 7713,
      "berdoa": 7714,
      "tarik": 7715,
      "berpr": 7716,
      "clapping": 7717,
      "##anjangan": 7718,
      "##lamation": 7719,
      "ci": 7720,
      "lambang": 7721,
      "##amana": 7722,
      "rub": 7723,
      "dkk": 7724,
      "##jan": 7725,
      "exclamation": 7726,
      "barcelona": 7727,
      "ray": 7728,
      "pertam": 7729,
      "mengund": 7730,
      "komersial": 7731,
      "tahan": 7732,
      "ditemp": 7733,
      "yout": 7734,
      "##anam": 7735,
      "poso": 7736,
      "##umpai": 7737,
      "melakukannya": 7738,
      "one": 7739,
      "##edik": 7740,
      "ado": 7741,
      "aamiin": 7742,
      "andi": 7743,
      "##irasi": 7744,
      "fot": 7745,
      "hamzah": 7746,
      "mengacu": 7747,
      "munculnya": 7748,
      "##oki": 7749,
      "##ware": 7750,
      "kenal": 7751,
      "ditanya": 7752,
      "##abar": 7753,
      "persaingan": 7754,
      "##ussalam": 7755,
      "kamera": 7756,
      "dirasakan": 7757,
      "akademi": 7758,
      "disiplin": 7759,
      "les": 7760,
      "vit": 7761,
      "langgar": 7762,
      "##aritas": 7763,
      "##angkal": 7764,
      "regional": 7765,
      "material": 7766,
      "##ansir": 7767,
      "lest": 7768,
      "youtub": 7769,
      "seusai": 7770,
      "kehormatan": 7771,
      "##iatan": 7772,
      "hir": 7773,
      "kelemahan": 7774,
      "music": 7775,
      "##nal": 7776,
      "ditolak": 7777,
      "sopir": 7778,
      "mengajarkan": 7779,
      "kenc": 7780,
      "##eki": 7781,
      "##usif": 7782,
      "gua": 7783,
      "bpjs": 7784,
      "##ogor": 7785,
      "lanjutan": 7786,
      "memperkenalkan": 7787,
      "pengelola": 7788,
      "ungkap": 7789,
      "pendeta": 7790,
      "denpasar": 7791,
      "bund": 7792,
      "##erhana": 7793,
      "gapapa": 7794,
      "kediaman": 7795,
      "menurutnya": 7796,
      "wafat": 7797,
      "narkoba": 7798,
      "##abatan": 7799,
      "menangis": 7800,
      "pengamanan": 7801,
      "konon": 7802,
      "pemberantasan": 7803,
      "##elapan": 7804,
      "btw": 7805,
      "said": 7806,
      "landasan": 7807,
      "disediakan": 7808,
      "rac": 7809,
      "terluka": 7810,
      "larangan": 7811,
      "wash": 7812,
      "dijalankan": 7813,
      "##emy": 7814,
      "##ahnya": 7815,
      "penal": 7816,
      "menghormati": 7817,
      "nanya": 7818,
      "maap": 7819,
      "##esh": 7820,
      "##ambahan": 7821,
      "siaran": 7822,
      "##aaa": 7823,
      "penyerang": 7824,
      "tanggapan": 7825,
      "menyes": 7826,
      "##ongkar": 7827,
      "misteri": 7828,
      "berulang": 7829,
      "##obaan": 7830,
      "pelbagai": 7831,
      "awards": 7832,
      "##oyang": 7833,
      "under": 7834,
      "umno": 7835,
      "bata": 7836,
      "denger": 7837,
      "sug": 7838,
      "kut": 7839,
      "##emuka": 7840,
      "dipengaruhi": 7841,
      "rezek": 7842,
      "mesk": 7843,
      "euro": 7844,
      "penghasilan": 7845,
      "##lem": 7846,
      "##ico": 7847,
      "rokok": 7848,
      "##ebatan": 7849,
      "mendalam": 7850,
      "mengakhiri": 7851,
      "topik": 7852,
      "##che": 7853,
      "jolf": 7854,
      "##anjikan": 7855,
      "aplik": 7856,
      "rumput": 7857,
      "berhadapan": 7858,
      "diab": 7859,
      "##inga": 7860,
      "lari": 7861,
      "dada": 7862,
      "##akses": 7863,
      "khal": 7864,
      "menolong": 7865,
      "otoritas": 7866,
      "berman": 7867,
      "dap": 7868,
      "asap": 7869,
      "keliatan": 7870,
      "taiwan": 7871,
      "ngurus": 7872,
      "wahyu": 7873,
      "mini": 7874,
      "zain": 7875,
      "jusuf": 7876,
      "##umunan": 7877,
      "bangkit": 7878,
      "dimainkan": 7879,
      "jual": 7880,
      "cend": 7881,
      "##ograf": 7882,
      "melebihi": 7883,
      "##chen": 7884,
      "##ure": 7885,
      "kemiskin": 7886,
      "##day": 7887,
      "msh": 7888,
      "penanganan": 7889,
      "dikarenakan": 7890,
      "ال": 7891,
      "penerapan": 7892,
      "berni": 7893,
      "mail": 7894,
      "##lahan": 7895,
      "hart": 7896,
      "##ull": 7897,
      "ath": 7898,
      "kucing": 7899,
      "malu": 7900,
      "##amankan": 7901,
      "tergabung": 7902,
      "atap": 7903,
      "setan": 7904,
      "mega": 7905,
      "##ibatan": 7906,
      "##rit": 7907,
      "berkas": 7908,
      "mutu": 7909,
      "##amm": 7910,
      "alasannya": 7911,
      "chan": 7912,
      "kabup": 7913,
      "##baru": 7914,
      "gatau": 7915,
      "bocah": 7916,
      "##iayaan": 7917,
      "mens": 7918,
      "##ism": 7919,
      "jac": 7920,
      "##olan": 7921,
      "disusun": 7922,
      "parti": 7923,
      "minat": 7924,
      "##lind": 7925,
      "##linya": 7926,
      "##ahit": 7927,
      "terti": 7928,
      "disamping": 7929,
      "mengelola": 7930,
      "koperasi": 7931,
      "gitar": 7932,
      "##ingin": 7933,
      "cons": 7934,
      "down": 7935,
      "baw": 7936,
      "hadits": 7937,
      "patut": 7938,
      "66": 7939,
      "distancing": 7940,
      "knp": 7941,
      "pengunjuk": 7942,
      "konsumsi": 7943,
      "pasokan": 7944,
      "ortu": 7945,
      "jil": 7946,
      "diker": 7947,
      "pengamat": 7948,
      "lag": 7949,
      "kontak": 7950,
      "tegal": 7951,
      "bangsawan": 7952,
      "##otik": 7953,
      "##eber": 7954,
      "menaikkan": 7955,
      "##asari": 7956,
      "kb": 7957,
      "##sara": 7958,
      "kurangnya": 7959,
      "seter": 7960,
      "god": 7961,
      "##atukan": 7962,
      "bing": 7963,
      "hulu": 7964,
      "cd": 7965,
      "hamil": 7966,
      "berak": 7967,
      "sanggup": 7968,
      "distribusi": 7969,
      "jaman": 7970,
      "agust": 7971,
      "praktis": 7972,
      "taun": 7973,
      "ms": 7974,
      "penolakan": 7975,
      "bersaing": 7976,
      "kebangsaan": 7977,
      "mandi": 7978,
      "kompet": 7979,
      "inggr": 7980,
      "dirumahaja": 7981,
      "##mur": 7982,
      "diluncurkan": 7983,
      "matematika": 7984,
      "dikuasai": 7985,
      "##lh": 7986,
      "ular": 7987,
      "adv": 7988,
      "penyebaran": 7989,
      "serang": 7990,
      "cik": 7991,
      "shah": 7992,
      "##ations": 7993,
      "membakar": 7994,
      "ntar": 7995,
      "rt": 7996,
      "kluster": 7997,
      "tiang": 7998,
      "##ution": 7999,
      "nangis": 8000,
      "##krong": 8001,
      "perkataan": 8002,
      "kepemilikan": 8003,
      "tangannya": 8004,
      "pupuk": 8005,
      "gara2": 8006,
      "bengkulu": 8007,
      "kesian": 8008,
      "ambil": 8009,
      "##bel": 8010,
      "kurikulum": 8011,
      "tangk": 8012,
      "##ilingi": 8013,
      "##num": 8014,
      "nyaman": 8015,
      "aid": 8016,
      "melanda": 8017,
      "penulisan": 8018,
      "niat": 8019,
      "jujur": 8020,
      "motif": 8021,
      "##dikbud": 8022,
      "##apatkan": 8023,
      "religi": 8024,
      "menimpa": 8025,
      "dengannya": 8026,
      "raz": 8027,
      "##jar": 8028,
      "kuncoro": 8029,
      "##isinya": 8030,
      "##sial": 8031,
      "menyelenggarakan": 8032,
      "derajat": 8033,
      "bid": 8034,
      "##luk": 8035,
      "ketimbang": 8036,
      "darussalam": 8037,
      "maya": 8038,
      "##bendo": 8039,
      "800": 8040,
      "##akuasi": 8041,
      "##agn": 8042,
      "ditandai": 8043,
      "##ihad": 8044,
      "usulan": 8045,
      "lembah": 8046,
      "membiarkan": 8047,
      "bahagia": 8048,
      "menghilangkan": 8049,
      "karangbendo": 8050,
      "dihadapi": 8051,
      "alamat": 8052,
      "merugikan": 8053,
      "pengerja": 8054,
      "##reen": 8055,
      "stev": 8056,
      "ungk": 8057,
      "garam": 8058,
      "anjir": 8059,
      "menguntungkan": 8060,
      "##inggalan": 8061,
      "hahah": 8062,
      "gobl": 8063,
      "premier": 8064,
      "broken": 8065,
      "dpp": 8066,
      "sejati": 8067,
      "##iasaan": 8068,
      "perhitungan": 8069,
      "sepertinya": 8070,
      "human": 8071,
      "dhar": 8072,
      "every": 8073,
      "##gk": 8074,
      "goog": 8075,
      "##ampur": 8076,
      "##egoro": 8077,
      "kepent": 8078,
      "kaga": 8079,
      "perlahan": 8080,
      "persyaratan": 8081,
      "bpp": 8082,
      "sela": 8083,
      "lebaran": 8084,
      "##zz": 8085,
      "##app": 8086,
      "musibah": 8087,
      "mid": 8088,
      "##wasraya": 8089,
      "okt": 8090,
      "format": 8091,
      "butuh": 8092,
      "pembuat": 8093,
      "##sek": 8094,
      "soft": 8095,
      "sanksi": 8096,
      "##impunan": 8097,
      "pungg": 8098,
      "sai": 8099,
      "rp1": 8100,
      "nakes": 8101,
      "ketakutan": 8102,
      "tokyo": 8103,
      "##ardi": 8104,
      "bilangan": 8105,
      "memikirkan": 8106,
      "profesor": 8107,
      "richard": 8108,
      "males": 8109,
      "##jir": 8110,
      "purple": 8111,
      "##raw": 8112,
      "batam": 8113,
      "bomb": 8114,
      "muhamm": 8115,
      "kepr": 8116,
      "dicer": 8117,
      "gand": 8118,
      "##asila": 8119,
      "chi": 8120,
      "##angkitan": 8121,
      "hij": 8122,
      "tenggelam": 8123,
      "teman2": 8124,
      "##embak": 8125,
      "lp": 8126,
      "menyukai": 8127,
      "kesukses": 8128,
      "oj": 8129,
      "pidato": 8130,
      "bill": 8131,
      "diken": 8132,
      "tertua": 8133,
      "##ct": 8134,
      "sido": 8135,
      "pengambilan": 8136,
      "mengand": 8137,
      "cam": 8138,
      "sabar": 8139,
      "pembelian": 8140,
      "dateng": 8141,
      "batal": 8142,
      "adegan": 8143,
      "gmn": 8144,
      "berawal": 8145,
      "##awai": 8146,
      "##fit": 8147,
      "##abel": 8148,
      "berganti": 8149,
      "terimak": 8150,
      "coll": 8151,
      "sepakbola": 8152,
      "kelebihan": 8153,
      "pemakaman": 8154,
      "sebulan": 8155,
      "##nai": 8156,
      "##iji": 8157,
      "##umbuhan": 8158,
      "rupanya": 8159,
      "pushpin": 8160,
      "tembak": 8161,
      "jiwasraya": 8162,
      "bakteri": 8163,
      "south": 8164,
      "andr": 8165,
      "dilansir": 8166,
      "memul": 8167,
      "sinyal": 8168,
      "villa": 8169,
      "infeksi": 8170,
      "tb": 8171,
      "olimpiade": 8172,
      "##ide": 8173,
      "membedakan": 8174,
      "bij": 8175,
      "bukannya": 8176,
      "##evel": 8177,
      "riwayat": 8178,
      "pejuang": 8179,
      "##old": 8180,
      "##be": 8181,
      "cipt": 8182,
      "01": 8183,
      "dul": 8184,
      "menghargai": 8185,
      "ky": 8186,
      "ucap": 8187,
      "khalifah": 8188,
      "keteg": 8189,
      "berbagi": 8190,
      "##val": 8191,
      "ach": 8192,
      "##wood": 8193,
      "mengganti": 8194,
      "##saat": 8195,
      "rugi": 8196,
      "otot": 8197,
      "kewenangan": 8198,
      "produsen": 8199,
      "berdua": 8200,
      "##yy": 8201,
      "batik": 8202,
      "##ekatan": 8203,
      "bukunya": 8204,
      "##adat": 8205,
      "belom": 8206,
      "05": 8207,
      "mumpung": 8208,
      "penangg": 8209,
      "panen": 8210,
      "plus": 8211,
      "erat": 8212,
      "##spirasi": 8213,
      "berkunjung": 8214,
      "wo": 8215,
      "milyar": 8216,
      "graf": 8217,
      "dimensi": 8218,
      "##emikian": 8219,
      "paman": 8220,
      "kerangka": 8221,
      "pep": 8222,
      "shalat": 8223,
      "##oax": 8224,
      "pancasila": 8225,
      "ug": 8226,
      "##orsi": 8227,
      "08": 8228,
      "peramp": 8229,
      "benua": 8230,
      "pembahasan": 8231,
      "show": 8232,
      "##fh": 8233,
      "google": 8234,
      "asas": 8235,
      "##antit": 8236,
      "membebaskan": 8237,
      "more": 8238,
      "wapres": 8239,
      "kmr": 8240,
      "##deka": 8241,
      "##corona": 8242,
      "##hs": 8243,
      "org2": 8244,
      "kolonial": 8245,
      "marx": 8246,
      "kri": 8247,
      "##andra": 8248,
      "demonstrasi": 8249,
      "spes": 8250,
      "06": 8251,
      "sumbangan": 8252,
      "ekonom": 8253,
      "##gunaan": 8254,
      "gay": 8255,
      "##urusan": 8256,
      "deb": 8257,
      "dibaca": 8258,
      "fisika": 8259,
      "rok": 8260,
      "selaku": 8261,
      "bara": 8262,
      "zi": 8263,
      "soshum": 8264,
      "parpol": 8265,
      "lil": 8266,
      "segar": 8267,
      "max": 8268,
      "seneng": 8269,
      "bermanfaat": 8270,
      "mendadak": 8271,
      "##angkau": 8272,
      "back": 8273,
      "nad": 8274,
      "drs": 8275,
      "tk": 8276,
      "##ativ": 8277,
      "persis": 8278,
      "menon": 8279,
      "winking": 8280,
      "73": 8281,
      "ded": 8282,
      "##olo": 8283,
      "##hari": 8284,
      "disimpan": 8285,
      "tumb": 8286,
      "63": 8287,
      "tersen": 8288,
      "won": 8289,
      "ttp": 8290,
      "ditaw": 8291,
      "dub": 8292,
      "demok": 8293,
      "kepikiran": 8294,
      "hug": 8295,
      "gop": 8296,
      "lis": 8297,
      "##arantin": 8298,
      "##otanya": 8299,
      "88": 8300,
      "berniat": 8301,
      "squinting": 8302,
      "california": 8303,
      "##ogan": 8304,
      "deket": 8305,
      "72": 8306,
      "amin": 8307,
      "mengundurkan": 8308,
      "subsidi": 8309,
      "gunakan": 8310,
      "seakan": 8311,
      "mengikut": 8312,
      "haram": 8313,
      "cairan": 8314,
      "gembira": 8315,
      "ragu": 8316,
      "85": 8317,
      "aslinya": 8318,
      "penderitaan": 8319,
      "##lor": 8320,
      "rahmat": 8321,
      "##arki": 8322,
      "univers": 8323,
      "ij": 8324,
      "kay": 8325,
      "beredar": 8326,
      "bentar": 8327,
      "##ikm": 8328,
      "##enial": 8329,
      "kerabat": 8330,
      "61": 8331,
      "madura": 8332,
      "yu": 8333,
      "##ampungan": 8334,
      "gudang": 8335,
      "09": 8336,
      "penyi": 8337,
      "02": 8338,
      "gaes": 8339,
      "seputar": 8340,
      "hugging": 8341,
      "dagang": 8342,
      "menel": 8343,
      "##orth": 8344,
      "##oke": 8345,
      "xi": 8346,
      "##ech": 8347,
      "infrastruktur": 8348,
      "mineral": 8349,
      "kang": 8350,
      "##trans": 8351,
      "bro": 8352,
      "bener2": 8353,
      "mabes": 8354,
      "sebabnya": 8355,
      "org": 8356,
      "adek": 8357,
      "kuarantin": 8358,
      "bunyi": 8359,
      "##jukan": 8360,
      "##ening": 8361,
      "##okes": 8362,
      "tembok": 8363,
      "daniel": 8364,
      "acad": 8365,
      "stafsus": 8366,
      "doktor": 8367,
      "vokal": 8368,
      "kehendak": 8369,
      "##embunyi": 8370,
      "##uba": 8371,
      "bulog": 8372,
      "keterlibatan": 8373,
      "seterusnya": 8374,
      "700": 8375,
      "kpop": 8376,
      "fad": 8377,
      "mencintai": 8378,
      "sedemikian": 8379,
      "keindahan": 8380,
      "wac": 8381,
      "rezim": 8382,
      "##edah": 8383,
      "master": 8384,
      "##ye": 8385,
      "senanti": 8386,
      "cup": 8387,
      "##iteria": 8388,
      "warung": 8389,
      "saleh": 8390,
      "##inter": 8391,
      "##for": 8392,
      "amir": 8393,
      "definisi": 8394,
      "##ux": 8395,
      "##umber": 8396,
      "##andu": 8397,
      "komb": 8398,
      "##gian": 8399,
      "pengawas": 8400,
      "pilk": 8401,
      "shg": 8402,
      "senantiasa": 8403,
      "##gar": 8404,
      "domestik": 8405,
      "jurnalis": 8406,
      "##spek": 8407,
      "app": 8408,
      "pengajaran": 8409,
      "polres": 8410,
      "185": 8411,
      "limb": 8412,
      "aspir": 8413,
      "makanannya": 8414,
      "mengendalikan": 8415,
      "surve": 8416,
      "lemp": 8417,
      "##yid": 8418,
      "saran": 8419,
      "pasifik": 8420,
      "kaitan": 8421,
      "##erai": 8422,
      "tambang": 8423,
      "##rie": 8424,
      "cegah": 8425,
      "mengucapkan": 8426,
      "kyk": 8427,
      "tersenyum": 8428,
      "##ihab": 8429,
      "ident": 8430,
      "##ashion": 8431,
      "beta": 8432,
      "##ashi": 8433,
      "pemeran": 8434,
      "##sion": 8435,
      "##rp": 8436,
      "cetak": 8437,
      "love": 8438,
      "berpindah": 8439,
      "sidoarjo": 8440,
      "realitas": 8441,
      "kasar": 8442,
      "obatan": 8443,
      "250": 8444,
      "##ariat": 8445,
      "##gur": 8446,
      "teguh": 8447,
      "beri": 8448,
      "santo": 8449,
      "kemas": 8450,
      "mcm": 8451,
      "99": 8452,
      "menghadap": 8453,
      "##antitatif": 8454,
      "memelihara": 8455,
      "##atain": 8456,
      "##isipasi": 8457,
      "##oci": 8458,
      "##erse": 8459,
      "pembebasan": 8460,
      "mengantisipasi": 8461,
      "##ology": 8462,
      "gopay": 8463,
      "song": 8464,
      "kutu": 8465,
      "komik": 8466,
      "memadai": 8467,
      "kesuksesan": 8468,
      "##ety": 8469,
      "##indari": 8470,
      "merayakan": 8471,
      "##olahan": 8472,
      "180": 8473,
      "##amaju": 8474,
      "##eph": 8475,
      "##ahap": 8476,
      "only": 8477,
      "kah": 8478,
      "website": 8479,
      "trop": 8480,
      "lamanya": 8481,
      "membersihkan": 8482,
      "##eno": 8483,
      "mong": 8484,
      "psikologi": 8485,
      "nob": 8486,
      "##tunya": 8487,
      "muara": 8488,
      "##isip": 8489,
      "produser": 8490,
      "budak": 8491,
      "menduga": 8492,
      "wfh": 8493,
      "ditempuh": 8494,
      "##ky": 8495,
      "##otes": 8496,
      "##teng": 8497,
      "##ianto": 8498,
      "fifa": 8499,
      "##kus": 8500,
      "kual": 8501,
      "##eet": 8502,
      "klaim": 8503,
      "grad": 8504,
      "etika": 8505,
      "##estinya": 8506,
      "##oss": 8507,
      "mentah": 8508,
      "##usat": 8509,
      "menggel": 8510,
      "##omosikan": 8511,
      "kriteria": 8512,
      "gada": 8513,
      "pensiun": 8514,
      "asisten": 8515,
      "68": 8516,
      "dius": 8517,
      "##pura": 8518,
      "##ujung": 8519,
      "pra": 8520,
      "kolam": 8521,
      "##olf": 8522,
      "bukanlah": 8523,
      "meyakinkan": 8524,
      "semenjak": 8525,
      "##asang": 8526,
      "##inang": 8527,
      "##awijaya": 8528,
      "##kwkw": 8529,
      "meluas": 8530,
      "rebahan": 8531,
      "dwi": 8532,
      "pust": 8533,
      "biji": 8534,
      "anter": 8535,
      "menyenangkan": 8536,
      "##ajang": 8537,
      "ngakak": 8538,
      "##akt": 8539,
      "almar": 8540,
      "silah": 8541,
      "##utnya": 8542,
      "##munity": 8543,
      "pilkada": 8544,
      "direncanakan": 8545,
      "tabung": 8546,
      "kunj": 8547,
      "saintek": 8548,
      "market": 8549,
      "muj": 8550,
      "ungkapan": 8551,
      "##ualitas": 8552,
      "##ruari": 8553,
      "##inat": 8554,
      "saudaranya": 8555,
      "memicu": 8556,
      "ternak": 8557,
      "##ontrol": 8558,
      "##akala": 8559,
      "press": 8560,
      "temuan": 8561,
      "##reaming": 8562,
      "jangkitan": 8563,
      "mengger": 8564,
      "seleksi": 8565,
      "bermaksud": 8566,
      "gara": 8567,
      "manado": 8568,
      "waktunya": 8569,
      "almarhum": 8570,
      "menetap": 8571,
      "##opter": 8572,
      "membicarakan": 8573,
      "pelaksana": 8574,
      "work": 8575,
      "##inggal": 8576,
      "##ober": 8577,
      "perikanan": 8578,
      "kemungkin": 8579,
      "dias": 8580,
      "pansus": 8581,
      "mengharapkan": 8582,
      "lancar": 8583,
      "##yaw": 8584,
      "pks": 8585,
      "##infek": 8586,
      "pasang": 8587,
      "dikenakan": 8588,
      "pecah": 8589,
      "eli": 8590,
      "akademik": 8591,
      "##tag": 8592,
      "temen2": 8593,
      "penerima": 8594,
      "bambu": 8595,
      "##dr": 8596,
      "stadium": 8597,
      "##allah": 8598,
      "bumn": 8599,
      "##aker": 8600,
      "pemasaran": 8601,
      "ih": 8602,
      "hu": 8603,
      "##onegoro": 8604,
      "wew": 8605,
      "menyetujui": 8606,
      "mengurus": 8607,
      "herd": 8608,
      "kambing": 8609,
      "sci": 8610,
      "pemda": 8611,
      "dh": 8612,
      "sit": 8613,
      "jama": 8614,
      "dollar": 8615,
      "kafir": 8616,
      "enggan": 8617,
      "wayang": 8618,
      "berkenaan": 8619,
      "bertu": 8620,
      "bakat": 8621,
      "asean": 8622,
      "##itanya": 8623,
      "malem": 8624,
      "ppp": 8625,
      "restoran": 8626,
      "terganggu": 8627,
      "benc": 8628,
      "asuransi": 8629,
      "penetapan": 8630,
      "##alurkan": 8631,
      "diisi": 8632,
      "best": 8633,
      "hangat": 8634,
      "##wang": 8635,
      "##ulir": 8636,
      "bibit": 8637,
      "terbanyak": 8638,
      "mengerjakan": 8639,
      "rohani": 8640,
      "kekasih": 8641,
      "pic": 8642,
      "nyawa": 8643,
      "##urt": 8644,
      "##engkapan": 8645,
      "lomb": 8646,
      "sedih": 8647,
      "lemak": 8648,
      "cucu": 8649,
      "nada": 8650,
      "##ahter": 8651,
      "marga": 8652,
      "punggung": 8653,
      "##astikan": 8654,
      "beruntung": 8655,
      "##oll": 8656,
      "67": 8657,
      "##ibur": 8658,
      "tujuannya": 8659,
      "terkemuka": 8660,
      "membenarkan": 8661,
      "miss": 8662,
      "viral": 8663,
      "tw": 8664,
      "karangan": 8665,
      "tebal": 8666,
      "##ehan": 8667,
      "##unjang": 8668,
      "spiritual": 8669,
      "gais": 8670,
      "##utin": 8671,
      "buzz": 8672,
      "##polri": 8673,
      "##ning": 8674,
      "penggemar": 8675,
      "74": 8676,
      "##intar": 8677,
      "life": 8678,
      "fran": 8679,
      "kid": 8680,
      "##agukan": 8681,
      "uda": 8682,
      "pengec": 8683,
      "##agram": 8684,
      "##lm": 8685,
      "disiarkan": 8686,
      "makasih": 8687,
      "07": 8688,
      "krna": 8689,
      "##agaman": 8690,
      "##lication": 8691,
      "haha": 8692,
      "menyita": 8693,
      "anggotanya": 8694,
      "denmark": 8695,
      "mengusulkan": 8696,
      "setara": 8697,
      "##akna": 8698,
      "dimakamkan": 8699,
      "berpartisipasi": 8700,
      "byk": 8701,
      "spek": 8702,
      "tin": 8703,
      "wisat": 8704,
      "fu": 8705,
      "immunity": 8706,
      "##erjain": 8707,
      "priv": 8708,
      "pilot": 8709,
      "how": 8710,
      "disana": 8711,
      "##juangkan": 8712,
      "pemandangan": 8713,
      "solid": 8714,
      "bios": 8715,
      "##iro": 8716,
      "green": 8717,
      "kiai": 8718,
      "mahkota": 8719,
      "tuanya": 8720,
      "jihad": 8721,
      "sof": 8722,
      "puc": 8723,
      "##ote": 8724,
      "tech": 8725,
      "multiplication": 8726,
      "81": 8727,
      "dibahas": 8728,
      "mrk": 8729,
      "power": 8730,
      "mangk": 8731,
      "pasaran": 8732,
      "tingginya": 8733,
      "pki": 8734,
      "baja": 8735,
      "berangg": 8736,
      "mahu": 8737,
      "muslimahnews": 8738,
      "kedalam": 8739,
      "insp": 8740,
      "pengem": 8741,
      "menyelidiki": 8742,
      "hahaha": 8743,
      "##ebook": 8744,
      "hoax": 8745,
      "gausah": 8746,
      "konsentrasi": 8747,
      "ditinggalkan": 8748,
      "direktorat": 8749,
      "##out": 8750,
      "##utanan": 8751,
      "76": 8752,
      "brun": 8753,
      "mcd": 8754,
      "kedaulatan": 8755,
      "##eu": 8756,
      "ambis": 8757,
      "sumur": 8758,
      "kenyataannya": 8759,
      "goblok": 8760,
      "seribu": 8761,
      "yaud": 8762,
      "##matan": 8763,
      "##top": 8764,
      "sunan": 8765,
      "za": 8766,
      "kesulit": 8767,
      "akrab": 8768,
      "anak2": 8769,
      "kontribusi": 8770,
      "##ewaan": 8771,
      "menembus": 8772,
      "##san": 8773,
      "penyelenggara": 8774,
      "penyedia": 8775,
      "##imen": 8776,
      "kebahagia": 8777,
      "salat": 8778,
      "jalanan": 8779,
      "dinyat": 8780,
      "dikelola": 8781,
      "kompetensi": 8782,
      "mog": 8783,
      "##alisasikan": 8784,
      "drp": 8785,
      "legenda": 8786,
      "pembeli": 8787,
      "way": 8788,
      "##aduan": 8789,
      "steady": 8790,
      "##agan": 8791,
      "fiksi": 8792,
      "plastik": 8793,
      "monkey": 8794,
      "pemukiman": 8795,
      "bosen": 8796,
      "persah": 8797,
      "penyidik": 8798,
      "tipis": 8799,
      "dihentikan": 8800,
      "akh": 8801,
      "##gabungkan": 8802,
      "wisatawan": 8803,
      "good": 8804,
      "serangkaian": 8805,
      "bayangin": 8806,
      "wacana": 8807,
      "glowing": 8808,
      "##unyi": 8809,
      "anal": 8810,
      "terpenting": 8811,
      "kendali": 8812,
      "##inggung": 8813,
      "hantar": 8814,
      "konsisten": 8815,
      "120": 8816,
      "sken": 8817,
      "persamaan": 8818,
      "cha": 8819,
      "didik": 8820,
      "organik": 8821,
      "liberal": 8822,
      "##yani": 8823,
      "mewah": 8824,
      "##oka": 8825,
      "eff": 8826,
      "bentrokan": 8827,
      "referensi": 8828,
      "##cle": 8829,
      "menyebarkan": 8830,
      "##awati": 8831,
      "menyentuh": 8832,
      "universal": 8833,
      "cerdas": 8834,
      "meres": 8835,
      "zenius": 8836,
      "##utupan": 8837,
      "mutualan": 8838,
      "##oe": 8839,
      "##bd": 8840,
      "pengiriman": 8841,
      "persahabatan": 8842,
      "##cc": 8843,
      "##als": 8844,
      "awak": 8845,
      "komedi": 8846,
      "sejahtera": 8847,
      "dipahami": 8848,
      "##ofi": 8849,
      "##omotif": 8850,
      "nct": 8851,
      "berturut": 8852,
      "buta": 8853,
      "##upi": 8854,
      "rela": 8855,
      "pinggir": 8856,
      "bermakna": 8857,
      "78": 8858,
      "get": 8859,
      "telek": 8860,
      "kabel": 8861,
      "victor": 8862,
      "high": 8863,
      "oh": 8864,
      "pembakaran": 8865,
      "mempertimbangkan": 8866,
      "bkn": 8867,
      "##pn": 8868,
      "membah": 8869,
      "rasional": 8870,
      "yaaa": 8871,
      "##entik": 8872,
      "77": 8873,
      "pdhl": 8874,
      "upah": 8875,
      "menempuh": 8876,
      "anterin": 8877,
      "awam": 8878,
      "beng": 8879,
      "sawit": 8880,
      "barusan": 8881,
      "##yt": 8882,
      "terungkap": 8883,
      "vii": 8884,
      "bny": 8885,
      "bokap": 8886,
      "terapi": 8887,
      "sisanya": 8888,
      "sosialis": 8889,
      "##itt": 8890,
      "orangtua": 8891,
      "ismail": 8892,
      "indra": 8893,
      "nafsu": 8894,
      "buzzer": 8895,
      "stru": 8896,
      "kapolri": 8897,
      "kerumah": 8898,
      "leher": 8899,
      "hiv": 8900,
      "mencuri": 8901,
      "##dan": 8902,
      "jateng": 8903,
      "bau": 8904,
      "berikan": 8905,
      "##hid": 8906,
      "meledak": 8907,
      "khan": 8908,
      "##apin": 8909,
      "brawijaya": 8910,
      "kedungrejo": 8911,
      "##ury": 8912,
      "##ink": 8913,
      "##ampok": 8914,
      "file": 8915,
      "kebahagiaan": 8916,
      "##alanan": 8917,
      "mayor": 8918,
      "gig": 8919,
      "ngada": 8920,
      "terkesan": 8921,
      "roti": 8922,
      "jejak": 8923,
      "melamb": 8924,
      "himb": 8925,
      "sempit": 8926,
      "ngumpul": 8927,
      "link": 8928,
      "mikirin": 8929,
      "dibeli": 8930,
      "pertar": 8931,
      "konstruksi": 8932,
      "lini": 8933,
      "dekade": 8934,
      "terdistribusi": 8935,
      "##injau": 8936,
      "04": 8937,
      "bpk": 8938,
      "anx": 8939,
      "memperkirakan": 8940,
      "##anfaatkan": 8941,
      "didampingi": 8942,
      "##akti": 8943,
      "evaluasi": 8944,
      "audi": 8945,
      "jag": 8946,
      "menampung": 8947,
      "ruas": 8948,
      "fase": 8949,
      "##faatan": 8950,
      "ditawarkan": 8951,
      "##ative": 8952,
      "sms": 8953,
      "mitra": 8954,
      "enak": 8955,
      "matanya": 8956,
      "fund": 8957,
      "setinggi": 8958,
      "##aruan": 8959,
      "instagram": 8960,
      "perhubungan": 8961,
      "##anjurkan": 8962,
      "tex": 8963,
      "motivasi": 8964,
      "keahlian": 8965,
      "tahta": 8966,
      "harm": 8967,
      "gugatan": 8968,
      "##off": 8969,
      "##obat": 8970,
      "##panjang": 8971,
      "evil": 8972,
      "##tanya": 8973,
      "hakikat": 8974,
      "ladang": 8975,
      "tutup": 8976,
      "gamau": 8977,
      "garuda": 8978,
      "bnyk": 8979,
      "2024": 8980,
      "ciptaker": 8981,
      "julukan": 8982,
      "sempet": 8983,
      "disambut": 8984,
      "##isih": 8985,
      "yaudah": 8986,
      "utas": 8987,
      "##akor": 8988,
      "pln": 8989,
      "shopee": 8990,
      "kayanya": 8991,
      "interaksi": 8992,
      "christ": 8993,
      "eric": 8994,
      "71": 8995,
      "##enya": 8996,
      "record": 8997,
      "ojol": 8998,
      "terkejut": 8999,
      "line": 9000,
      "##yam": 9001,
      "karno": 9002,
      "laku": 9003,
      "gan": 9004,
      "count": 9005,
      "doi": 9006,
      "sblm": 9007,
      "##work": 9008,
      "pendaft": 9009,
      "perlind": 9010,
      "demen": 9011,
      "buka": 9012,
      "##angkitkan": 9013,
      "bingung": 9014,
      "##ushed": 9015,
      "##gh": 9016,
      "##urah": 9017,
      "##tip": 9018,
      "hard": 9019,
      "##ohkan": 9020,
      "kehutanan": 9021,
      "academy": 9022,
      "ix": 9023,
      "sepatu": 9024,
      "pesat": 9025,
      "mengamankan": 9026,
      "ngerjain": 9027,
      "datuk": 9028,
      "##apresiasi": 9029,
      "##angkali": 9030,
      "##idana": 9031,
      "deras": 9032,
      "##ering": 9033,
      "manc": 9034,
      "##asaran": 9035,
      "neraka": 9036,
      "pendaftaran": 9037,
      "entertainment": 9038,
      "amanat": 9039,
      "raised": 9040,
      "potongan": 9041,
      "fist": 9042,
      "##normal": 9043,
      "caranya": 9044,
      "emp": 9045,
      "instansi": 9046,
      "dikabarkan": 9047,
      "rahman": 9048,
      "kelap": 9049,
      "bacaan": 9050,
      "toh": 9051,
      "rekomend": 9052,
      "syariat": 9053,
      "edhy": 9054,
      "lurus": 9055,
      "akhl": 9056,
      "berkom": 9057,
      "##adaptasi": 9058,
      "omnibuslaw": 9059,
      "dpd": 9060,
      "##umpa": 9061,
      "netbook": 9062,
      "##kala": 9063,
      "##ulia": 9064,
      "menyarankan": 9065,
      "ramadhan": 9066,
      "##daftar": 9067,
      "map": 9068,
      "analis": 9069,
      "##ruktur": 9070,
      "kemenkes": 9071,
      "bea": 9072,
      "##ele": 9073,
      "isinya": 9074,
      "ditunjukkan": 9075,
      "95": 9076,
      "rw": 9077,
      "bangsat": 9078,
      "sunnah": 9079,
      "keberatan": 9080,
      "##ily": 9081,
      "tugasnya": 9082,
      "##unculan": 9083,
      "memf": 9084,
      "kediri": 9085,
      "selang": 9086,
      "massal": 9087,
      "kolaps": 9088,
      "rach": 9089,
      "tank": 9090,
      "sn": 9091,
      "survei": 9092,
      "prioritas": 9093,
      "federal": 9094,
      "ty": 9095,
      "##ianya": 9096,
      "peternakan": 9097,
      "dipec": 9098,
      "club": 9099,
      "kompr": 9100,
      "sekian": 9101,
      "demonstran": 9102,
      "rekom": 9103,
      "milenial": 9104,
      "kriminal": 9105,
      "##uke": 9106,
      "##syah": 9107,
      "jabatannya": 9108,
      "##ulat": 9109,
      "milih": 9110,
      "paksa": 9111,
      "##onan": 9112,
      "##zo": 9113,
      "kkm": 9114,
      "pembawa": 9115,
      "##cang": 9116,
      "bbrp": 9117,
      "##ucorona": 9118,
      "perdebatan": 9119,
      "##━━": 9120,
      "juventus": 9121,
      "##epan": 9122,
      "##ls": 9123,
      "##wanya": 9124,
      "##ilasi": 9125,
      "ngeliat": 9126,
      "datater": 9127,
      "menun": 9128,
      "ngerasa": 9129,
      "tertawa": 9130,
      "tabel": 9131,
      "##arinah": 9132,
      "nyokap": 9133,
      "##umuskan": 9134,
      "##masker": 9135,
      "urusin": 9136,
      "develop": 9137,
      "##cepat": 9138,
      "##tiga": 9139,
      "tongk": 9140,
      "tengk": 9141,
      "mendarat": 9142,
      "sarinah": 9143,
      "86": 9144,
      "##jaan": 9145,
      "ditarik": 9146,
      "##barucorona": 9147,
      "mant": 9148,
      "dataterbarucorona": 9149,
      "##intis": 9150,
      "menanyakan": 9151,
      "politisi": 9152,
      "mohon": 9153,
      "musisi": 9154,
      "##isiplin": 9155,
      "pengas": 9156,
      "##ganegaraan": 9157,
      "perlakuan": 9158,
      "melem": 9159,
      "##omn": 9160,
      "surakarta": 9161,
      "penghuni": 9162,
      "harganya": 9163,
      "biceps": 9164,
      "percobaan": 9165,
      "pengum": 9166,
      "pengaturan": 9167,
      "flexed": 9168,
      "param": 9169,
      "berjaya": 9170,
      "##ilaf": 9171,
      "##board": 9172,
      "palu": 9173,
      "prakt": 9174,
      "nn": 9175,
      "som": 9176,
      "intensif": 9177,
      "tpu": 9178,
      "pemantauan": 9179,
      "gugur": 9180,
      "##ulit": 9181,
      "transp": 9182,
      "##astis": 9183,
      "rizie": 9184,
      "jim": 9185,
      "baj": 9186,
      "lgi": 9187,
      "##bs": 9188,
      "bub": 9189,
      "##dj": 9190,
      "##anggur": 9191,
      "##ius": 9192,
      "pengeluaran": 9193,
      "fav": 9194,
      "wab": 9195,
      "penerangan": 9196,
      "##firmasi": 9197,
      "cem": 9198,
      "siapapun": 9199,
      "dendam": 9200,
      "##ehat": 9201,
      "drakor": 9202,
      "ampe": 9203,
      "##eser": 9204,
      "blu": 9205,
      "seluruhnya": 9206,
      "asuhan": 9207,
      "hang": 9208,
      "##ahulu": 9209,
      "sentim": 9210,
      "menonton": 9211,
      "pcr": 9212,
      "mutlak": 9213,
      "scr": 9214,
      "pemulihan": 9215,
      "ditangani": 9216,
      "propinsi": 9217,
      "zul": 9218,
      "mendatangkan": 9219,
      "##okol": 9220,
      "diperhatikan": 9221,
      "##uto": 9222,
      "operator": 9223,
      "wik": 9224,
      "epidemiologi": 9225,
      "##nia": 9226,
      "ahok": 9227,
      "facepal": 9228,
      "##iny": 9229,
      "bulat": 9230,
      "bercerita": 9231,
      "pontianak": 9232,
      "pengendalian": 9233,
      "psych": 9234,
      "berdampak": 9235,
      "kis": 9236,
      "software": 9237,
      "##tive": 9238,
      "##erankan": 9239,
      "69": 9240,
      "sengk": 9241,
      "aspirasi": 9242,
      "##isit": 9243,
      "facepalming": 9244,
      "telinga": 9245,
      "baginya": 9246,
      "ribet": 9247,
      "dibebaskan": 9248,
      "kultur": 9249,
      "pengadaan": 9250,
      "rekomendasi": 9251,
      "mendikbud": 9252,
      "himbauan": 9253,
      "dihukum": 9254,
      "overs": 9255,
      "bimb": 9256,
      "webinar": 9257,
      "pertarungan": 9258,
      "##okerto": 9259,
      "gizi": 9260,
      "prog": 9261,
      "frekuensi": 9262,
      "ear": 9263,
      "##omnibus": 9264,
      "##fo": 9265,
      "wr": 9266,
      "##idasi": 9267,
      "##ahah": 9268,
      "dilantik": 9269,
      "korona": 9270,
      "penyus": 9271,
      "##inum": 9272,
      "dipake": 9273,
      "butt": 9274,
      "jabar": 9275,
      "anton": 9276,
      "beralih": 9277,
      "##bun": 9278,
      "skenario": 9279,
      "ajah": 9280,
      "##isahan": 9281,
      "meluncurkan": 9282,
      "terdekat": 9283,
      "sump": 9284,
      "menjauh": 9285,
      "bodong": 9286,
      "big": 9287,
      "##onik": 9288,
      "##care": 9289,
      "lirik": 9290,
      "filos": 9291,
      "nampak": 9292,
      "##ukasi": 9293,
      "##jat": 9294,
      "ovo": 9295,
      "##tp": 9296,
      "kue": 9297,
      "##wijaya": 9298,
      "belgia": 9299,
      "junior": 9300,
      "habit": 9301,
      "telekomunikasi": 9302,
      "telkom": 9303,
      "reseller": 9304,
      "zakat": 9305,
      "gpp": 9306,
      "##asing": 9307,
      "03": 9308,
      "belasan": 9309,
      "##daya": 9310,
      "##oses": 9311,
      "semenanjung": 9312,
      "serba": 9313,
      "ks": 9314,
      "matang": 9315,
      "over": 9316,
      "##ecil": 9317,
      "hubungannya": 9318,
      "sebetulnya": 9319,
      "dominan": 9320,
      "berbah": 9321,
      "pertambangan": 9322,
      "membalas": 9323,
      "nangg": 9324,
      "##vive": 9325,
      "penjual": 9326,
      "tong": 9327,
      "cabut": 9328,
      "penambahan": 9329,
      "jurnal": 9330,
      "ketah": 9331,
      "rawan": 9332,
      "gegara": 9333,
      "##oom": 9334,
      "logika": 9335,
      "nominasi": 9336,
      "ideal": 9337,
      "kandung": 9338,
      "##esarkan": 9339,
      "persepsi": 9340,
      "dengar": 9341,
      "survive": 9342,
      "bertahun": 9343,
      "apaan": 9344,
      "pemanfaatan": 9345,
      "patah": 9346,
      "gila": 9347,
      "##inus": 9348,
      "##entak": 9349,
      "nil": 9350,
      "##ru": 9351,
      "bervari": 9352,
      "menjalin": 9353,
      "pengolahan": 9354,
      "lazim": 9355,
      "ciptaan": 9356,
      "cs": 9357,
      "melemp": 9358,
      "berperang": 9359,
      "pengumuman": 9360,
      "pencapaian": 9361,
      "teri": 9362,
      "kepalanya": 9363,
      "lor": 9364,
      "##organ": 9365,
      "membuang": 9366,
      "opini": 9367,
      "98": 9368,
      "tragedi": 9369,
      "eksekusi": 9370,
      "public": 9371,
      "part": 9372,
      "penahanan": 9373,
      "kecerd": 9374,
      "dipaksa": 9375,
      "memohon": 9376,
      "kesem": 9377,
      "##ult": 9378,
      "everyone": 9379,
      "takde": 9380,
      "##ugat": 9381,
      "resep": 9382,
[...]
